.
I
,
the
to
a
and
of
is
in
my
it
that
for
was
have
you
n't
``
are
!
with
's
be
on
me
this
not
so
but
do
can
will
English
at
It
we
as
The
)
time
-
about
very
from
like
(
?
because
people
'm
by
there
they
had
or
more
an
want
one
think
am
:
some
go
which
good
all
has
But
he
would
when
their
them
many
In
day
know
could
Japanese
who
if
My
other
were
been
her
also
So
up
went
our
'
should
get
what
This
she
now
We
first
Japan
your
did
work
just
friends
make
only
really
his
school
lot
much
than
today
new
out
use
study
And
going
how
life
too
years
Today
friend
If
year
way
take
However
When
see
after
feel
said
write
last
He
such
well
need
got
no
most
him
long
help
There
two
ca
home
always
things
days
've
made
us
these
any
hope
even
back
"
before
world
job
still
'll
They
say
little
something
hard
money
every
old
learn
here
country
next
She
A
read
love
used
After
better
since
family
thought
then
high
find
As
come
into
able
important
best
happy
8
may
writing
live
why
diary
same
different
/
For
speak
try
never
over
started
week
house
found
place
class
students
Because
ago
again
What
understand
must
around
thing
language
nuclear
;
where
difficult
came
morning
kind
took
problem
public
its
movie
person
give
2
while
big
night
food
great
does
future
studying
myself
talk
each
book
That
bad
improve
eat
technology
buy
Now
tell
another
working
company
2009
university
play
few
part
children
http
You
yesterday
show
felt
without
though
example
called
keep
countries
looking
government
told
student
elderly
course
watch
during
car
One
become
teacher
being
month
summer
often
enjoy
wanted
music
At
city
words
using
3
soon
might
energy
right
test
reading
start
learning
Then
power
look
interesting
english
three
saw
sometimes
decided
name
care
someone
problems
enough
To
those
On
nice
meet
bought
cold
parents
TV
reason
beautiful
man
tomorrow
books
^
Chinese
down
site
asked
through
put
already
end
especially
Tokyo
change
Do
almost
1
forward
hours
own
information
between
room
times
heard
Therefore
development
process
off
system
famous
shopping
foreign
fun
How
game
small
experience
Lang
First
design
means
mother
'd
Although
story
makes
order
free
doing
party
getting
water
please
living
usually
believe
stay
until
]
hot
[
-@@
fact
everyone
hand
5
aged
correct
Singapore
tired
near
sleep
ate
having
restaurant
speaking
%
trip
Some
watching
travel
cost
both
weather
4
possible
spend
thinking
second
watched
research
bit
sure
population
spending
Yesterday
clothes
others
met
busy
easy
tried
result
skills
~
exam
favorite
train
10
office
months
American
anything
health
news
girl
Please
society
young
everything
together
let
visit
interested
idea
China
ask
finished
shop
early
age
Anyway
everyday
computer
phone
mind
human
By
=
due
practice
left
business
aging
holiday
recently
seems
listening
away
minutes
gave
These
lives
dinner
lunch
taking
Retrieved
situation
making
listen
team
Korean
far
less
playing
Also
Maybe
New
Recently
Since
word
chance
point
area
yet
addition
quite
weekend
face
written
seen
Actually
feeling
enjoyed
Of
became
number
education
whether
body
late
dream
popular
Dear
drink
looked
short
wish
maybe
Last
plan
college
e
vacation
coming
wrote
Korea
talking
ever
past
once
several
special
All
son
Even
changed
talked
done
`
wife
main
played
town
whole
6
call
hear
un@@
m
genetic
movies
pay
entry
abroad
song
half
/@@
bus
father
opinion
bed
internet
30
transport
lots
stop
support
&
true
culture
full
later
weeks
mean
social
case
season
picture
Is
poor
Many
real
safety
nothing
t
actually
remember
fast
run
happened
reactor
group
website
knew
o
teach
air
level
environment
learned
choose
evening
needs
least
hour
reactors
studied
surprised
instead
September
s
20
Thank
spent
skill
sad
daughter
known
daily
letter
expensive
Finally
lost
activities
members
strong
native
wrong
VHTR
answer
hair
trying
concert
easily
languages
_
child
places
meeting
increase
bring
Why
finally
Internet
club
check
winter
in@@
*
leave
price
rain
economic
sports
lesson
various
sentences
cause
question
amount
're
conversation
wear
reasons
7
front
walk
wo
With
cars
program
under
medical
Moreover
//www.@@
eating
store
_@@
wonder
building
etc
worked
alone
generation
woman
large
s@@
wait
Sometimes
areas
products
ability
sentence
finish
accident
October
five
heart
moment
husband
present
birthday
set
held
songs
games
prefer
kinds
S@@
useful
knowledge
continue
sister
arrived
festival
companies
delicious
America
results
waste
service
questions
four
afternoon
outside
glad
US
major
}
temperature
classes
excited
{
HYPERLINK
pictures
low
wanna
view
2008
London
earthquake
takes
People
engineering
re@@
station
works
July
Nuclear
sport
current
comes
afraid
however
funny
rest
passed
side
although
.@@
taken
conclusion
mistakes
From
move
RFID
spring
University
matter
comfortable
ways
rather
er
waiting
video
open
women
journal
wonderful
pass
a@@
Thus
natural
According
older
i
close
economy
t@@
needed
guess
snow
article
e@@
prepare
plants
cool
Well
forget
save
Most
communicate
rice
anyone
difference
electricity
score
ones
park
realized
eyes
Yours
web
teachers
A@@
plant
sorry
style
D
hospital
quickly
9
No
workers
turn
necessary
baby
worried
film
send
common
coffee
provide
lived
issue
sound
brother
boy
history
hotel
serious
mail
looks
strange
swimming
event
market
probably
huge
o@@
above
men
running
cut
themselves
d@@
decide
lang
grammar
k@@
paper
exciting
expected
opportunity
says
given
perfect
developed
Furthermore
sea
nervous
higher
ing
While
closed
simple
usual
C@@
Sunday
dog
i@@
happen
clean
against
ed
Next
Secondly
guy
fine
recommend
began
won
Our
introduce
seemed
saying
Every
Another
compared
type
limited
testing
received
gone
helped
traditional
en@@
May
policies
00
pretty
Besides
solve
warm
financial
voice
fuel
walking
attention
japanese
World
D@@
meaning
K@@
cook
share
P@@
$
training
sent
reduce
wants
y@@
thank
Hello
modern
girls
among
shows
IV
available
hearing
Firstly
drinking
15
Saturday
stayed
visited
ten
increasing
Though
line
T@@
advertisement
l
light
longer
Australia
local
certain
individual
goal
final
beginning
mobile
April
rainy
2007
helps
lose
including
boyfriend
heavy
seeing
weight
international
f@@
explain
lack
Before
post
top
E@@
younger
sounds
kids
Christmas
His
terrible
quality
G@@
foods
six
boring
engineers
product
p@@
I@@
B@@
similar
suddenly
further
Hence
g@@
born
third
worry
March
cute
trouble
moved
fall
condition
boss
es
disease
hate
per
June
doctor
everybody
private
jobs
goes
join
middle
Taiwan
Have
break
mistake
During
following
worse
sing
staff
c@@
security
term
sense
Unfortunately
liked
art
costs
ticket
express
couple
benefits
issues
communication
Day
caused
lead
choice
easier
Hi
ideas
library
healthy
red
science
street
performance
agree
rate
12
foreigners
guys
b@@
August
homework
taste
holidays
project
control
graduate
n@@
lessons
head
l@@
U
electric
shops
>
PC
T
seem
u
p
safe
brought
Thanks
completely
personal
11
drama
road
clear
contact
USA
resources
develop
consider
normal
risk
sky
online
exercise
miss
woke
planning
N@@
F@@
O@@
green
M@@
along
tennis
ma@@
period
Canada
interview
deal
related
u@@
tea
global
member
French
advice
healthcare
noticed
report
stopped
white
fish
Especially
2004
nature
imagine
Tomorrow
instance
surveillance
mine
li@@
Can
joined
friendly
soccer
Just
Oh
speaker
beer
card
pain
growth
drive
space
yen
message
starting
step
junior
door
effort
self
TOEIC
stage
turned
Nowadays
field
married
examination
except
relatives
disappointed
inside
20@@
mom
points
technologies
prevent
clock
ease
na
relationship
return
topic
band
developing
cooking
es@@
series
feelings
tonight
competition
catch
center
an@@
solution
sick
wind
2005
Kyoto
driving
h@@
thus
Pat
national
character
musical
named
factors
role
H@@
dance
amazing
tend
cake
else
exchange
m@@
totally
angry
teaching
speakers
exams
R@@
Friday
form
theatre
Monday
law
L@@
sleeping
ly
appreciate
purpose
cat
black
football
ers
grade
Let
materials
//@@
player
begin
keeping
Not
blog
create
receive
taught
supposed
on@@
realize
<
likes
wake
sincerely
convenient
d
staying
kept
wedding
J@@
y
al@@
stuff
floor
traffic
forgot
based
Osaka
pressure
either
ting
attend
within
definitely
stress
harder
50
hit
presentation
stand
enter
animals
grow
ice
sleepy
actor
located
positive
relax
interest
recent
hometown
An
basketball
accidents
table
changes
entrance
sweet
touch
ar@@
thanks
subject
S
2006
er@@
raining
activity
100
Year
schools
hold
fell
previous
therefore
B
improved
United
build
effective
win
policy
prepared
ti@@
anymore
painting
gives
THE
color
enjoyable
expect
mentioned
About
Are
ted
decision
C
crazy
position
breakfast
r@@
shoes
account
z@@
dictionary
dangerous
photo
n
favourite
transportation
4@@
to@@
success
beach
girlfriend
families
la@@
medicine
method
psychology
Second
ts
en
3@@
stories
efficiency
cafe
improving
innovation
focus
broken
chat
citizens
department
land
v@@
Her
apartment
essay
rules
gon
heat
biggest
mountain
Michael
bar
hobby
hands
National
References
vocabulary
drank
avoid
date
gas
singing
International
basic
meal
cities
introduced
follow
lower
dishes
immediately
text
tickets
Generation
k
paid
pronunciation
atmosphere
effect
source
truth
progress
radio
+
changing
j@@
camera
cheap
walked
studies
ra@@
becoming
ch@@
g
terms
.com/@@
it@@
track
ball
w@@
opened
earlier
privacy
industry
caught
till
confidence
W@@
programs
cherry
nowadays
parts
travelling
effects
events
fresh
produce
ride
Here
memory
patients
lucky
built
according
listened
speed
bicycle
classmates
considered
fashion
helping
community
customers
speech
baseball
sun
retirement
Spanish
died
reach
oil
master
5@@
title
chose
entries
th@@
Everyone
ca@@
yourself
Skype
wondering
ran
rich
smile
blue
characters
suitable
somebody
senior
experiences
benefit
di@@
con@@
machine
physical
2@@
Good
slept
giving
plans
hurt
al
created
lazy
nobody
co
enjoying
loved
cell
increased
individuals
V@@
advantages
si@@
single
st@@
required
someday
ageing
or@@
services
satisfied
negative
U@@
allow
size
blood
ensure
twice
showed
window
bath
concerned
growing
P
argue
particular
patient
achieve
box
action
cup
Yes
match
original
confused
starts
offer
worker
general
ri@@
systems
potential
ready
becomes
funds
key
reply
happiness
photos
state
2000
England
facilities
behind
sunny
wearing
likely
bag
towards
uses
God
worth
Europe
ha@@
sold
8@@
UK
death
bike
japan
Fortunately
mainly
solutions
mood
checked
plays
apply
at@@
notice
impossible
gets
knows
war
somewhere
search
hardly
river
Could
elementary
vegetables
camp
buildings
trees
tough
degree
concern
disaster
brain
co@@
moving
careful
weak
page
police
allowed
respect
States
flowers
television
British
preparing
tests
pool
professional
pop
types
experienced
add
crowded
dark
prize
York
efficient
le
computers
burden
buying
cream
million
nation
pollution
South
Two
chinese
production
ab@@
accept
island
surprise
Mr
de@@
exactly
6@@
conference
diseases
ro@@
bored
chocolate
thoughts
faster
treatment
German
dis@@
fluently
responsibility
meat
schedule
ceremony
7@@
ent
cheaper
active
fan
garden
te
Energy
.html
below
importance
Their
ex@@
iPhone
essential
media
military
Y@@
list
ter
OK
earth
funding
sit
California
protect
soup
excellent
himself
led
race
employees
restaurants
ended
airport
sell
for@@
newspaper
scared
Sir
luck
se
drunk
helpful
semester
typhoon
40
DVD
stars
successful
'@@
articles
sushi
bank
figure
guitar
operation
ac@@
ground
16
clearly
laptop
colleagues
earn
scene
traveling
carry
differences
users
die
whose
cases
demand
innovations
IT
anyway
mo@@
attended
wa@@
Your
smart
goods
suggest
.pdf
18
application
s/@@
se@@
act
income
released
14
understood
2003
E
Reactor
advanced
processes
sales
opportunities
quit
sitting
impressed
cooked
O
graduated
ordered
pm
planned
percent
gym
houses
Or
1st
entered
professor
el@@
extremely
version
9@@
warming
foreigner
limit
museum
conditions
players
aspects
dont
Technology
invited
challenge
stores
sum
13
corrected
include
log
bread
happens
regret
su@@
Does
In@@
dead
dreams
Once
spoke
January
material
piece
deep
sp@@
access
25
Chernobyl
comments
fantastic
Russian
host
Danny
impact
possibility
data
strongly
lol
milk
stupid
piano
failed
king
career
expression
latest
over@@
prefecture
singer
significant
Italian
Usually
faithfully
management
answered
h
Nevertheless
rock
highly
software
driver
produced
whenever
France
construction
Its
Tuesday
everywhere
insurance
concentrate
encourage
fully
understanding
December
Festival
Summer
itself
midnight
unique
budget
distance
shocked
advantage
slow
novel
require
India
governments
charge
fever
im@@
memories
ourselves
asleep
TO
dogs
lovely
c
worst
Which
customer
non
pick
sh@@
total
leaves
image
welfare
,@@
Brook
currently
graduation
subjects
affect
curry
fire
Facebook
seven
17
dancing
ages
alcohol
simply
attitude
gradually
1@@
2010
ant
doubt
afford
designed
Only
solar
technological
causes
de
seriously
complete
swim
programme
affected
standard
task
via
autumn
birth
haha
dollars
be@@
bigger
gift
radioactive
convenience
familiar
op@@
variety
wine
em@@
groups
proper
killed
nearly
...
broke
email
manager
M
pro@@
humans
pleased
century
visiting
cultures
leaving
manage
secret
phones
damage
hungry
anywhere
finding
ation
films
honest
surfing
kill
theater
Who
ec@@
fit
despite
draw
expressions
Butler
fight
spoken
19@@
belong
chicken
anime
discovered
allows
gain
shown
th
willing
involved
Despite
happening
tion
fat
&@@
X
efforts
lecture
recommended
lo@@
sa@@
boys
no@@
ta@@
hydrogen
magazine
value
wide
ated
ded
whom
don
requires
minute
relaxed
unfortunately
.htm
blossoms
flight
sed
whatever
eye
mi@@
Germany
February
Those
directly
ment
difficulty
math
provided
lately
celebrate
us@@
extra
suffering
applied
maintain
ok
saving
situations
smoking
concept
corrections
ap@@
arrive
diet
Public
asking
cancer
Asian
advance
tour
smell
comment
fireworks
factor
lonely
overseas
topics
More
Z@@
trains
discuss
specific
adults
loves
po@@
returned
tree
contribute
plane
pleasure
force
Genetic
influence
appeared
flu
wall
Three
across
average
features
the@@
ordinary
x
fear
chatting
complicated
carefully
gotten
TOEFL
cats
drawing
surgery
address
hobbies
reality
registered
skin
Both
seat
complain
slowly
phrase
salary
absolutely
capital
foot
moon
motivation
radiation
ve
Wednesday
crisis
b
attractive
overcome
24
as@@
continued
depressed
ine
calm
feels
actors
tent
dress
telephone
mouth
sites
section
tool
beauty
screen
volunteer
courses
ea@@
ous
Italy
cultural
shape
former
Over
invention
environmental
aim
korean
childhood
details
reduced
supermarket
pa@@
difficulties
ked
usage
10@@
ag@@
rent
0
meals
pe@@
suit
carrier
degrees
headache
failure
dish
practicing
45
et@@
adult
behavior
nbsp
Ryan
laugh
shy
suffer
translate
alternative
partner
.org/@@
fee
female
loss
mental
2001
fossil
function
habit
note
st
SCWR
ch
depends
extent
eventually
quiet
60
J
skype
chances
flat
per@@
proud
reached
appropriate
r
record
Instead
ad@@
cards
discount
cleaning
inter@@
November
promised
remembered
European
concerns
elder
rule
upset
2002
errors
opinions
res@@
sort
missed
City
Kim
lie
provides
Hong
Thailand
Russia
hang
so@@
technical
twenty
improvement
ship
suggested
nose
climbing
et
0@@
engineer
items
sight
19
le@@
scientists
teeth
tions
drinks
equipment
impression
waited
Madam
lifestyle
Hope
forever
go@@
Science
colleague
church
kitchen
operating
dry
High
workforce
discounts
sightseeing
awesome
cry
expenses
id@@
license
mostly
prices
rise
ic@@
range
accent
da@@
hunting
providing
ho@@
implemented
sign
Almost
CPF
eaten
riding
streets
tax
Asia
deeply
describe
ent@@
tourists
methods
raise
weird
bi@@
dad
generate
greatly
content
Ma@@
animation
brings
owner
wash
exist
generations
ing@@
lights
Camp
centre
id
introduction
telling
accepted
exhausted
responsible
net
structure
Kong
il@@
am@@
flower
sources
tasks
fried
grandmother
n.d.
aware
model
regular
salt
ance
diaries
messages
frequently
nearby
spite
knowing
measures
review
secrets
noodles
Other
School
aspect
employment
marriage
crying
standing
god
relatively
user
fix
persons
2011
21
Time
devices
ding
welcome
el
vehicles
fail
ci@@
journey
23
balance
cover
participate
treat
Very
bo@@
dairy
desk
parties
Central
Did
rising
valuable
Thursday
tu@@
wet
pair
contrast
safer
decrease
fuels
ill
includes
me@@
rights
thousand
peace
22
Health
facing
managed
Thai
eight
stomach
kid
letters
ty
Suddenly
ds
ses
AND
aid
electronic
goals
hundred
ni@@
picked
ya
political
star
Due
sauce
hello
shower
CD
Spain
ev@@
Mar@@
hall
vi@@
board
shirt
generated
im
wore
faced
examples
glasses
hence
sometime
Peter
bright
ou@@
relaxing
comic
reasonable
theme
sector
throw
filled
sat
smoke
confident
fields
videos
beings
ir@@
author
do@@
practical
explained
housing
projects
wondered
Would
device
Where
billion
guide
inform
ke
occurred
Spring
background
menu
't
reveal
Seoul
ha
machines
suppose
golf
spread
anybody
om@@
region
Such
ary
audience
car@@
ring
ce
fly
raised
tive
regarding
academic
invented
Like
mall
sweets
consideration
infrastructure
practiced
president
properly
greater
yes
rooms
x@@
Power
considering
hi@@
horrible
supply
temple
18@@
Lastly
AM
accommodation
glass
personality
typical
D.
believed
lady
phrases
disadvantages
mountains
te@@
appear
handle
sufficient
buses
covered
leader
IN
brand
ne@@
subtitles
universities
ys
Life
soft
unable
conversations
incident
somehow
yellow
Okinawa
tents
village
bear
searching
Ministry
North
Perhaps
animal
core
disorder
pet
promise
qu@@
certainly
effectively
ning
manga
novels
Research
classmate
discovery
ge
inventions
desire
dy
ks
coal
uncomfortable
crime
ga@@
opposite
primary
steps
Re@@
grateful
falling
numbers
statement
Harry
L
Will
dropped
entire
missing
com@@
depend
homes
pieces
John
faces
noon
rea@@
Im
artists
grown
highest
names
ps
western
Everything
Love
2nd
Google
lines
lyrics
network
putting
textbook
album
ence
freedom
perfectly
toward
Development
Without
parent
request
scenery
Hokkaido
ally
factory
dramas
generally
illness
journals
ling
stronger
weekends
80
chosen
mention
papers
v
connect
der
discrimination
noodle
rapidly
bye
upon
Americans
carried
fans
memorize
notes
response
sale
Park
chair
indeed
male
pray
vehicle
3D
Nature
Sorry
subway
ver@@
expenditure
paint
super
contents
passing
complex
friendship
interests
strict
17@@
K
cycle
cor@@
emergency
functions
noise
remain
compare
conditioner
coolant
custom
leading
trust
ze
powerful
Mrs
announced
carbon
cinema
economics
ends
tra@@
Nagoya
curious
designing
dirty
disappointing
opening
recover
tasty
historical
majority
nor
presents
shortage
thesis
1000
perform
pre@@
scary
selling
consequences
nap
Happy
losing
meant
pizza
pot
round
ta
throughout
Engineering
actions
climate
loud
precious
severe
3rd
banned
challenges
option
relationships
survive
Al@@
Apple
bu@@
passion
smaller
solved
south
f
straight
z
spare
cried
est
pleasant
plenty
rare
reported
serve
offered
particularly
release
tongue
Island
Whenever
abilities
cousin
facebook
forgotten
hospitals
larger
organization
scientific
translation
15@@
added
claim
drop
ending
fu@@
tells
Indian
ideal
pl@@
als
correctly
der@@
plastic
thinks
washing
Beijing
Each
R
crucial
independent
seminar
Someone
beneficial
encouraged
fruit
ll
alive
artist
decades
escape
fa@@
occur
Education
beef
conventional
ex
28
65
Everybody
and@@
diverted
Museum
forced
tic
widely
Cup
parking
ite
umbrella
Twitter
constantly
discussion
learners
relieved
ver
writer
Australian
les
psychological
cakes
correcting
danger
drove
entertainment
gi@@
km
priority
Con@@
NY
brush
digital
ness
sang
Yokohama
answers
dentist
designs
lies
re
target
twitter
Ch@@
educational
ong
roads
SFR
Yet
besides
eggs
herself
savings
ur@@
Best
Should
ating
scheme
discussed
weapons
F
ko
par@@
cu@@
is@@
ma
ramen
ba@@
birds
legs
leisure
strength
unknown
13@@
contains
included
connected
corner
admit
correction
finishing
leads
location
era
okay
ons
ter@@
Singaporeans
approach
credit
lake
throat
Government
feet
shrine
sore
Vancouver
cheer
joke
learnt
12@@
du@@
ID
attack
ful
gra@@
investment
painful
tense
25@@
M.
Helen
awful
forest
north
wishes
Aging
boat
documents
existing
iPod
jogging
rarely
rely
70
consumption
ka
levels
normally
Fukushima
cha@@
egg
recognize
teams
Philippines
See
Take
destination
followed
speaks
Lee
Vietnam
fair
taxi
Earth
ther
zed
IN@@
appearance
creative
hesitate
increases
writting
Having
IS
ou
out@@
spirit
#
cellphone
fund
holding
mixed
values
Right
chi@@
director
exercises
korea
pages
wh@@
Probably
climb
fi@@
hi
spot
ans
calls
ear
laughing
sts
26
Disney
ancient
Africa
Potter
commercial
employee
reducing
replied
shot
thin
tsunami
Times
To@@
cloudy
formal
tools
Golden
error
lab
cleaned
clothing
creating
fewer
fighting
laboratory
victims
websites
Di@@
contrary
dislike
experiment
ner
published
checking
competitive
enhance
mar@@
official
productivity
searched
Through
closer
fluent
rid
um
Thirdly
anxious
bathroom
demands
stood
tr@@
discover
mass
tears
translated
Shopping
contest
duty
fixed
iPad
replace
Shanghai
attract
ed@@
emotional
grew
man@@
organized
reaction
religion
states
treated
G
Paris
Zealand
exhibition
theory
16@@
cabin
il
ings
scale
seek
Taiwanese
choices
invite
raw
significantly
succeed
horse
invest
No@@
base
detail
dormitory
salon
views
gained
maintenance
smoothly
29
comics
rec@@
regards
regularly
sc@@
Being
argument
campus
performed
roommate
shi@@
tracking
bags
saved
showing
ang@@
annoying
developments
matters
mu@@
under@@
airplane
assistant
gases
offers
Mt
Reference
collect
employers
harmful
impressive
perhaps
regard
transfer
battery
marketing
movement
unless
beat
ble
eng@@
served
thousands
4th
blossom
concepts
da
direct
singers
ton
90
forecast
gather
eager
ents
rode
sion
ten@@
thirty
Hawaii
San
naturally
ors
stable
acting
beginner
critical
magic
suggestion
tastes
washed
affects
comedy
connection
efficiently
oh
researchers
w
11@@
Nice
applications
begun
unhappy
attached
china
classroom
consists
ge@@
hurry
laughed
marathon
paying
shall
Fashion
Until
arts
stick
Mi@@
Third
X@@
double
repair
ry
ters
ying
Car@@
Human
row
ji
pi@@
refrigerator
troubles
volleyball
DVDs
War
electrical
gu@@
latter
mum
tourist
200
circle
cure
heavily
ker
placed
Children
keeps
protection
karaoke
suggestions
Art
beyond
literature
mon@@
prevented
sub@@
surely
cash
greatest
leg
practise
stuck
ates
ki
tion@@
ves
PM
Tonight
damaged
pity
An@@
habits
ic
newspapers
30@@
achieved
ang
successfully
Ar@@
Mo@@
des@@
ul@@
ve@@
Tom
bottle
display
sti@@
traveled
Th@@
courage
jump
marry
profit
tor
27
castle
nt
peaceful
tiny
Canadian
Lately
Ro@@
analysis
depression
magazines
ms
shaped
Information
dawn
est@@
rained
OF
appointment
nine
sake
setting
Hey
conclude
fruits
tor@@
push
humid
na@@
s-@@
Hotel
bar@@
booked
purchase
quick
stone
tasted
visitors
XD
agreed
circumstances
determined
doctors
explanation
fill
item
operate
preparation
sweat
Design
informed
onto
promote
realised
supporting
fo@@
posted
scenes
youth
Learning
cope
touched
windows
workplace
Western
empty
juice
keen
ly@@
obvious
pace
ph@@
ru@@
suffered
um@@
Smith
boiled
choosing
feature
gold
politics
trend
Currently
ING
Language
Y
bottom
direction
ig@@
lu@@
photography
Speaking
advise
au@@
greenhouse
mails
my@@
status
wa
BBC
News
beside
pork
pub
resource
shock
stressed
supported
unusual
ved
Department
Institute
Su@@
ad
bird
consumers
gate
s.@@
Taipei
Un@@
Valentine
cheese
os
rates
turns
educated
ens
pri@@
producing
40@@
drugs
ey
hoping
prove
snowing
tri@@
Rogers
additional
anytime
forms
risks
SNS
mid
snacks
sons
14@@
Looking
concerts
harm
otherwise
200@@
N
army
ity
participated
ties
completed
sharing
Go
MSR
Me
URL
dioxide
ears
jam
reports
war@@
1999
brown
decisions
moral
sending
Oct
attending
ingredients
injured
laws
wi@@
classical
colors
election
episode
fault
freely
ki@@
phenomenon
stations
survey
ture
Hiroshima
apart
clinic
resulted
slightly
East
cant
embarrassed
routine
College
RE@@
bl@@
ck
dependency
obtain
ping
worrying
Co@@
aunt
cram
fin@@
talent
hell
profile
rubbish
Ha@@
MY
Malaysia
cabins
cal@@
intend
mad
recorded
reliable
sudden
installed
jazz
stressful
tall
14th
Everyday
Tohoku
ahead
bodies
influenced
purposes
reminds
residents
wild
27@@
basis
ery
500
Sa@@
Sydney
nations
recognized
sk@@
ski
Mexico
destroyed
guests
yoga
Reading
Writing
air@@
cutting
kindergarten
robots
subsidies
50@@
EN@@
Week
architecture
begins
capable
cycling
fore@@
neighborhood
sex
wallet
causing
copy
daughters
finger
fishing
ia
min@@
press
sugar
sunshine
ud@@
Generally
Long
chemical
countryside
ear@@
ser@@
sh
sur@@
turning
House
Students
babies
logical
pronounce
seconds
tourism
Consequently
Later
Li@@
code
ously
soy
stated
studing
designer
fourth
grandfather
path
alarm
instruments
mark
solving
tooth
Center
Green
Nobody
emotions
farm
flying
largest
sheets
vital
Indeed
Shi@@
grammer
gs
innovative
ocean
pasta
roll
tags
Bo@@
Show
productive
sectors
31
Sh@@
Yeah
economical
frustrated
monitor
pen
sunday
uranium
Mon@@
couples
genes
ped
20:15
Circle
Friends
ber@@
downtown
east
reminded
talks
23@@
ber
chatted
conducted
court
massage
attracted
expecting
identify
ies
marks
muscle
pu@@
IELTS
agency
badly
continues
gap
seldom
teenagers
truly
shared
applying
obviously
opponents
seasons
tiring
y-@@
Brazil
falls
hoped
meters
ON
Theatre
arms
e-@@
runs
selected
skating
Social
assignment
els
ering
select
tes
work@@
AN
Ta@@
bill
borrowed
calling
link
proposed
wealth
judge
planet
produces
receiving
register
Mac
colder
ess
med
neither
pension
seats
toilet
yours
Ba@@
concerning
entering
es/@@
excuse
industrial
resume
surface
thermal
useless
ER
advancement
sensitive
Web
annoyed
ano
ard
mate
oral
polite
reference
shi
whereas
Among
ED
actual
camping
daytime
noisy
yed
5th
apple
awareness
creativity
overall
session
button
chemistry
fees
lly
min
numerous
percentage
relative
approximately
cl@@
depending
exact
jo@@
neck
romantic
strategy
00@@
absent
annual
ants
bookstore
laundry
metal
Be
Com@@
advertising
aly
broadcast
chips
ger
Minister
associated
basically
brothers
context
elders
ered
furniture
hero
images
replaced
robot
sta@@
35
Big
H
Paul
TO@@
coat
contributed
gh@@
rainbow
remind
rush
shoulder
sl@@
ee@@
improvements
Fuji
arm
aside
central
cited
golden
grandparents
parks
visa
west
Additionally
Fast
Indonesia
Population
Temperature
\
counter
flavor
forth
map
mer
poverty
tutor
Meanwhile
appreciated
ches
lover
programming
stands
virus
Test
Toronto
composition
dear
joy
pets
san
separate
shirts
tested
vo@@
En@@
Koreans
garbage
imagined
possibly
trade
unexpected
Great
Har@@
R&D
Safety
Sea
addicted
colour
earthquakes
gasoline
grand
illnesses
requirements
signed
Pro@@
badminton
bowl
determine
encouraging
ff@@
intended
secure
shift
warmer
Journal
King
breath
dealing
gifts
minds
obligation
presented
techniques
ty@@
ES
Par@@
adapt
assistance
burning
disagree
handsome
ion
satisfy
surprising
Mother
S.
cross
established
gathered
ina
q@@
relevant
sa
spicy
Fund
count
enable
evidence
industries
pointed
studio
teaches
contract
debate
delivery
ep@@
follows
physics
remains
revealing
stadium
waves
IS@@
Rainbow
Santa
cal
mor@@
notebook
ny
ob@@
pack
salad
sides
threw
tries
vegetable
AR@@
celebrated
dependent
ines
loudly
none
tips
Halloween
Palace
ar
grades
minister
mothers
perspective
programmes
sha@@
technique
tradition
St@@
Still
WAS
ned
physically
sisters
Leisure
YOU
citizen
com
communicating
equal
ese
helium
ol@@
pants
ay
capacity
disasters
emission
hide
recycling
reduces
remove
surrounded
thick
american
carrying
disappeared
examinations
feed
ls
smiling
trial
YouTube
bloom
internship
motorcycle
pregnant
recovered
tournament
tower
trips
Kobe
bet
brilliant
cartoon
comfort
grass
manner
relation
rural
sand
up@@
2012
Association
Party
Sendai
bridge
channel
skiing
thier
uncle
1986
ka@@
operators
soul
vision
worldwide
Eventually
filial
nearest
oven
sen@@
wood
@
II
appears
arrange
automatically
ins
rains
silly
stock
threat
wise
ak@@
ations
awake
coach
incredible
miso
ster
wave
Compared
affordable
arranged
existence
ga
mis@@
originally
plutonium
safely
statistics
volume
,000
Any
Autumn
emissions
har@@
multiple
muscles
nursing
of@@
organizations
resort
sheet
ss
ure
300
Medical
described
output
tomato
upload
Peterson
ant@@
beans
decreasing
experiments
fortunately
fr@@
height
musician
nights
options
struggling
ashamed
implementation
instant
meanings
mouse
new@@
rude
stic
ung
BBQ
chi
gen@@
mates
temporary
tv
Ko@@
U.S.
bor@@
cells
comparison
ll@@
plate
toy
zoo
Mile
Psychology
W
bands
domestic
pocket
que
Khandani
Na@@
bs
dying
happily
hire
kimono
kindness
lying
officer
passport
borrow
by@@
ders
divided
pan
raising
Apart
bills
overtime
passengers
prime
snowboarding
toys
Chi@@
Prime
Using
cheerful
contribution
drivers
emotion
explosion
focused
kindly
mature
ours
pink
serendipitous
temperatures
70@@
actress
district
hat
hole
imagination
institute
measure
neighbor
pure
surrounding
treatments
Press
Vietnamese
fla@@
identification
limiting
suicide
Obama
ator
delay
gar@@
ir
ments
unlike
Am
La@@
Otherwise
THAT
Youtube
ana
mix
motivated
obligated
orange
package
pla@@
rapid
regardless
winner
19:30
Honestly
Q@@
characteristics
drew
drug
farewell
happier
ignore
lift
mer@@
schemes
trained
unnecessary
24@@
Poland
designers
dly
makers
promising
untill
wasted
Olympic
Sapporo
anger
costly
dialy
fed
hanging
hundreds
inevitable
killing
objective
politicians
terrorists
textbooks
worries
K.
Red
bri@@
facts
labor
microwave
narrow
non-@@
object
renewable
youtube
Bi@@
G.
Moscow
Society
ache
cameras
can@@
challenging
claimed
hung
men@@
ming
separated
suits
tie
wheel
1998
29@@
Forum
Mandarin
asks
coworkers
exposed
haven't
involves
models
monthly
passive
shorter
taxes
Family
System
assist
blame
classic
comp@@
criminal
dec@@
deserve
dollar
download
engine
impacts
league
mathematics
nurse
patience
potato
quake
strategies
Man
clerk
fallen
horror
insist
instrument
ok@@
retired
sin@@
square
Britain
Free
Surveillance
bra@@
bur@@
crowd
customs
ect
iphone
journalists
loo@@
AT
Cor@@
Luckily
Water
argued
exp@@
leaders
spots
stolen
Fukuoka
Ka@@
Min@@
Windows
ely
financially
pose
ut@@
yo
youngest
AM@@
Agency
Winter
ali@@
client
colorful
jokes
AS@@
Anyways
Black
acquire
becouse
expectancy
jeans
popularity
stages
wastes
History
Inter@@
Lo@@
ching
file
ku@@
painted
underground
zing
100@@
Po@@
Soon
gr@@
inc@@
meetings
passage
refreshed
sophisticated
terrorist
Amazon
CDs
OS
Street
agent
bea@@
cooler
den@@
festivals
generating
oc@@
pres@@
Bar@@
adventure
battle
controlled
finance
freshman
massive
recipe
Future
millions
museums
mysterious
peoples
personally
surf
Da@@
State
all@@
amazed
anxiety
casual
coun@@
des
dri@@
estimated
fiction
guest
landscape
rental
repeat
/0@@
429
AC@@
Hopefully
Kansai
br@@
branch
ck@@
cou@@
envy
graduating
joining
paintings
refused
AL@@
Going
Provident
accustomed
anniversary
essays
ethical
organize
packed
skilled
tag
thin@@
urban
13th
Ex@@
admire
ani@@
ement
forty
wasting
weekdays
20th
Ageing
Home
den
enormous
ky
ley
lottery
researches
scores
shut
superior
1.@@
15th
21st
Air
bomb
cast
elements
ently
portion
talents
wisdom
TS
insufficient
pp@@
relations
slang
supper
sustainable
symptoms
GPS
deny
disorders
hill
organised
regarded
.com
De@@
V
cleaner
fascinating
majoring
regulations
tur@@
bother
cloth
dic@@
homestay
hu@@
implement
kin@@
nightmare
procedures
proven
stability
80@@
ME
Someday
che@@
clever
decline
easing
edge
pr@@
scheduled
sea@@
ven@@
Something
White
barely
boost
lay
refresh
shame
silent
typing
19.30
Ms
Pa@@
Sep
Singaporean
alot
cookies
delivered
fortune
identity
mus@@
sailing
shed
ware
Club
Global
OR
Starbucks
bringing
caring
chain
clients
fingers
flow
interviews
jacket
ns
printed
smiled
sounded
tons
tt@@
45@@
Ad@@
ai
bride
encounter
fe@@
hamper
hated
healthier
mirror
moments
outdoor
styles
ut
va@@
1/@@
Available
Come
Parents
Taking
clubs
deadline
fl@@
ian
proved
refuse
saturday
soap
09@@
FOR
Hall
criminals
explore
fulfill
kes
mas
meaningful
seniors
struggle
tic@@
windy
AT@@
HDB
attacks
canceled
day@@
eve
focusing
gathering
kers
stairs
sung
Back
Cha@@
coworker
enables
experts
ignored
musicians
strangers
sun@@
Ca@@
Mc@@
adjust
ances
awkward
behave
brave
clouds
crimes
firm
sunset
GDP
L.
Ok
R.
ba
energetic
hotels
kg
northern
proportion
retire
slight
McDonald
Mr.
Regarding
Robertson
Studying
ee
fond
s_@@
sted
stu@@
switch
tics
we@@
60@@
AN@@
Bangkok
LFR
any@@
ces
constant
cra@@
economically
friday
frozen
ill@@
lea@@
ong@@
print
refund
somewhat
ther@@
ya@@
Wow
academy
contain
controversial
hamburger
importantly
ined
instructor
ken
legal
lin
maker
mankind
relief
Music
ched
fifty
hand@@
ne
property
reputation
specially
standards
terrorism
yo@@
7th
Company
MSN
attractions
ban
bars
commonly
gh
humor
lity
molten
ster@@
stranger
update
Gu@@
Shinjuku
arguments
document
expand
feasible
learner
ler
sickness
succeeded
touching
undergo
Old
Sports
Systems
adopted
blind
disappear
lectures
minimum
satisfaction
upper
1-@@
Nothing
competitions
dreamed
factories
french
housework
int@@
oo@@
payment
wherever
IM@@
Q
commute
composed
consequence
defense
dressed
everytime
quarter
ss@@
summary
titled
vast
//en.wikipedia.org/wiki/@@
Board
Chiba
President
ably
civil
confirm
continuous
cr@@
load
promotion
sooner
11th
Wikipedia
baked
creates
discoveries
exists
ied
kinda
oldest
recession
roof
sadness
silver
staffs
t-@@
thankful
wars
Jane
Sometime
Starting
acc@@
ari@@
attacked
cation
col@@
cuisine
delayed
dreaming
extreme
fiscal
ging
increasingly
manufacturing
neglected
ng
platform
sal@@
stops
supermarkets
Bu@@
Egypt
blogs
clo@@
cooling
dried
emphasis
fishes
ide
spa
stuffs
talented
uk@@
uniform
Business
C.
Polish
Si@@
breaking
bunch
burn
don@@
intelligent
introducing
planed
proliferation
33@@
Committee
Man@@
Watching
Write
acted
amounts
continuously
delighted
diving
gay
gorgeous
proof
revealed
sy@@
tip
tors
vs
wor@@
26@@
Arts
advised
convinced
ges
meltdown
port
realise
som@@
spelling
temples
texts
troublesome
unbelievable
Ac@@
Go@@
Olympics
belongs
chocolates
compete
confusing
ei@@
flew
home@@
ise
keyboard
lovers
pop@@
selfish
snack
Ho@@
Jack
Listening
Living
Se@@
Sincerely
analyze
atomic
cur@@
destroy
ghost
heaven
pe
sis
sofa
steam
visual
David
Jo@@
adequate
advances
amusement
bio@@
fashionable
fied
forces
gentle
ko@@
lets
limitation
mission
possibilities
recall
tight
ving
000
Electronic
Help
Robert
San@@
cate
dolls
expectations
fertility
gene
jumped
monday
oun@@
rel@@
rented
resulting
tone
Act
Bye
DS
Statistics
TH@@
businesses
combination
ell@@
encourages
evil
incentives
initial
rabbit
reprocessing
sec@@
tw@@
voices
28@@
cartoons
cated
collection
favor
hopefully
ore
potatoes
procedure
robotic
signs
su
terribly
you@@
238-240
Celsius
For@@
Report
af@@
cli@@
conduct
definition
fifth
grilled
highschool
hiking
household
quantity
smooth
super@@
sustain
800
LA
Ra@@
Working
article@@
balls
bone
cooperation
creation
inspired
install
matches
partners
reader
shouted
springs
&_@@
Hi@@
Maria
Too
Under
advertisements
bell
cater
cough
greeting
ji@@
minimize
occurs
plot
posting
province
reception
sting
stroke
audio
concentration
employed
exc@@
fifteen
ited
ju@@
miles
obstacles
performances
positions
pull
silence
suprised
verb
Be@@
LO@@
Rock
Sushi
Ukraine
Work
cho@@
continuing
defined
didnt
din@@
launched
mentally
personnel
route
secondary
shining
tackle
trash
volunteers
Alice
Community
IC@@
Yu@@
accurate
block
cel@@
consumer
equipped
flies
ger@@
grandma
maximum
mess
onion
picnic
sets
un
weapon
49@@
6th
Lots
Microsoft
Reactors
acts
adopt
belonged
dorm
fac@@
ke@@
mystery
phase
preventing
souvenir
starring
stra@@
ugly
unpleasant
Toshiba
environmentally
ess@@
ining
mixi
moreover
nickname
tendency
tional
Diary
dessert
enthusiastic
fitness
insects
launch
respond
roommates
ton@@
uni@@
2030
CNN
General
James
aims
appetite
bedroom
boxes
expressed
fri@@
limitations
lion
ner@@
requested
researching
scientist
shocking
shooting
tem@@
ur
vulnerable
walls
EN
GIF
Sp@@
boots
bus@@
cigarette
distinguish
formed
hay
ine@@
input
monitoring
outcome
Basically
Eve
River
accounts
calendar
ell
halls
hidden
hurts
incorrect
innocent
largely
lesser
ology
ow@@
posts
remaining
tends
ward
10th
2050
Barcelona
Nara
eing
filmed
homeless
movements
off@@
pan@@
predict
protected
storm
trans@@
Feb
Mom
Seattle
Several
Sun
Testing
ale
allowing
bitter
driven
expectation
implementing
ire
loving
plus
CH@@
Computer
Modern
arise
assignments
breeze
colored
dating
dramatically
episodes
guilty
ham
news/@@
ori
ori@@
participants
pattern
photograph
realistic
revenue
shaking
shoot
spanish
tly
twelve
violence
writers
advertised
assume
ce@@
chan
cloud
investing
iting
mode
ot
radioactivity
reduction
rough
server
wished
,2009
Kindle
Vi@@
advices
aquarium
cm
decade
figures
ist
resolution
1996
SO
acceptable
didn
dr@@
electronics
gun
ing-@@
knee
ple
portable
weakness
..
Turkey
Unlike
accents
allocated
app@@
doors
drawn
fun@@
graphic
ious
pen@@
presence
pretend
prison
readers
recovery
restart
situated
viewing
Arabic
Hospital
Jackson
attempt
back@@
bite
chef
comparing
deliver
flexible
mask
philosophy
script
sel@@
sm@@
socially
soldiers
tation
va
wan@@
warning
39@@
Christian
Dragon
Engineers
Miss
Tower
abuse
cla@@
coast
d-@@
ided
illegal
labour
lish
medal
merely
mini
n.d
passes
por@@
removed
supports
tied
treasure
upgrading
zation
400
Afterwards
Anna
E.
Electric
GFR
Introduction
Karaoke
Medisave
ane
bean
equipments
grocery
happend
immediate
invitation
ites
maintaining
rac@@
requirement
sexual
storage
unfair
virtual
ER@@
Economic
Little
Lu@@
NOT
Teacher
accessible
ative
behaviour
climbed
cups
deli@@
earned
establish
fake
ought
some@@
2.@@
AL
Look
ONE
abandoned
actively
avoided
bro@@
costume
define
diff@@
disabled
dra@@
elevator
every@@
hahaha
lied
neighbors
reservation
rose
southern
submit
Age
Hu@@
Sen@@
aff@@
afterwards
compulsory
differ@@
educate
goverment
he@@
injury
kilometers
long-term
opposition
outweigh
shing
tuition
winning
12th
Elderly
age@@
banana
chip
collapse
grows
mindset
nursery
pulled
religious
remained
soci@@
steak
unemployment
win@@
Shizuoka
Switzerland
Whatever
ami
apologize
char@@
fired
length
occasionally
om
resolve
sen
star@@
tire
yu
22@@
Fu@@
Per@@
chilly
collected
cooled
deaths
fascinated
performing
professors
proposal
rang
stri@@
transferred
urgent
-4@@
Centre
El@@
Personally
Pi@@
Ramen
ST@@
bottles
closely
dining
effectiveness
ences
google
organise
prevention
reserved
tremendous
unit
wing
www.@@
zero
J.
Mark
Mor@@
West
Young
authorities
championship
crea@@
cs
enthusiasm
feedback
forgive
gy
headed
hearts
highway
inf@@
kick
pping
recycle
skunkworks
spaghetti
tragedy
.aspx
600
BUT
Friedland
Le@@
NZ
accounting
broadcasting
cer@@
funeral
guessed
hopes
ladies
observe
professionals
pushed
unforgettable
weekday
25th
33
AS
ESL
Manga
PS
Sweden
Wilpert
accomplish
ara
arrested
decreased
fashions
mechanical
needy
predicted
profits
qualified
railway
scholarship
skirt
souvenirs
stones
tension
Land
Ri@@
Was
belief
dose
ere
files
flats
hotter
ku
mal@@
minor
revolution
ridiculous
rushed
str@@
Doctor
Give
Jap@@
Opponents
barbecue
cancel
channels
disposal
exposure
ey@@
powered
reflect
surroundings
swam
translator
vice
yeah
.asp
Tina
approaching
complaining
end@@
frequency
heater
honestly
lasted
limits
permission
pursue
seeking
therapy
tube
vote
waking
wears
yummy
17th
Chicago
EL@@
Hollywood
Study
Surprisingly
UN@@
Youth
achievement
complained
disadvantage
enc@@
enti@@
finds
goodbye
hy@@
iness
intermediate
investments
necessity
occured
p.@@
planted
processing
react
refers
xD
AG@@
Au@@
Im@@
Ni@@
Plus
Radio
So@@
absence
admission
bly
bound
brief
candy
cent
contained
immigrants
indirectly
intention
jams
occasion
son@@
strike
tomatoes
worn
Cam@@
Mary
New@@
Pe@@
St
celebration
comfortably
comprehension
contributing
dizzy
expense
external
fancy
hip
jet
manners
minded
og@@
photographs
pupils
ray
recommendation
representative
roles
ry@@
serves
species
£
Boston
Few
Laboratory
Mexican
Nor@@
Station
Women
attraction
click
critics
cul@@
danced
expressing
incidents
internal
neglect
outstanding
presentations
s.com/@@
shake
sharp
sings
uploaded
ups
wanting
wr@@
00pm
AP@@
Akihabara
Du@@
Francisco
Star
big@@
exception
her@@
high@@
ils
jealous
literally
swine
wn
ws
yard
75
Around
ballet
commit
considerable
crops
employer
flour
fundamental
grammatical
humidity
inner
ipod
jumping
lar
liquid
odd
offices
records
repaired
soil
towns
'cause
9th
Ah
Nagano
ama@@
artificial
assigned
comm@@
detailed
dialect
ged
idioms
improves
inconvenient
iron
lacking
loose
luckily
obtained
offering
owners
plain
puts
ref@@
substantial
symbol
16th
B.
H.
IL@@
Obviously
P.
Tell
Tra@@
ans@@
bla@@
concrete
farmers
fer@@
gloomy
holds
institutions
luxury
nu@@
one@@
pat@@
powder
sw@@
.edu/@@
Col@@
Frankly
Me@@
Privacy
description
eb@@
ened
extend
happ@@
invent
invested
networks
realy
respected
structures
with@@
IT@@
UR@@
adding
begining
biology
bonus
closing
cuz
dle
drums
evident
fy
int
la
lifts
ment@@
miserable
nephew
pig
radi@@
requesting
rhythm
surprisingly
ue
55
8th
DNA
Murakami
capability
cruel
enhanced
fought
fra@@
han
ini@@
medicines
necessarily
respectively
uneasy
Prefecture
SWCR
bicycles
catching
entirely
guarantee
handed
organic
pre
resistance
struck
wireless
Dr
Gra@@
US@@
association
blooming
chil@@
christmas
dust
fatigue
mag@@
misunderstanding
motor
non@@
plates
polluted
premium
principal
ste@@
NBA
Talking
Union
conscious
consecutive
constructed
directed
eats
fellow
gaining
gro@@
mid@@
optimistic
root
slower
unfamiliar
vacations
victim
well-@@
African
BE
Kanji
ON@@
Office
campaign
charged
dare
foundation
guard
hon@@
informations
inherited
ound
pepper
resistant
subtitle
survival
tokyo
150
Ga@@
Nonetheless
Scheme
Steve
cher
cigarettes
coin
differently
doc@@
ili@@
ily
ink
ism
moves
origin
priced
sacrifice
sodium
specifically
victory
Moon
NO
breaks
burned
committed
denied
earning
ection
evaluate
fairy
flu@@
gri@@
high-@@
irritated
keys
licence
medium
our@@
petrol
previously
pride
regions
serving
spell
34
Book
Tr@@
WE
Wish
beaches
bothered
displayed
fastest
firstly
grave
operations
proverb
ratio
refer
tap
withstand
10000
1997
Exhibition
Housing
Jan
Lake
Sha@@
THIS
anti@@
arriving
colours
fantasy
influences
involve
networking
od@@
planes
qualification
relieve
saves
self-@@
sells
similarities
smiles
Brown
Busan
Fa@@
NHK
Thinking
aries
bass
boiling
burger
consume
doll
easiest
estate
granted
investigation
ita
killer
micro@@
motivate
ni
o'clock
probability
reactions
returning
seeds
slim
snowy
tically
tro@@
violin
workshop
zone
ES@@
Mac@@
Netherlands
Res@@
Wa@@
Yoga
anc@@
belive
candidate
command
eldest
emails
enemy
exchanged
exercising
extended
ght
niece
oneself
paste
remote
responsibilities
tan@@
.gov.sg/@@
OR@@
Ser@@
Try
accidentally
aggressive
barrier
broadcasted
charming
decorated
del@@
discussing
excessive
genius
iled
implications
meets
pp
programmer
races
stor@@
surgical
teenager
AK@@
Beatles
Night
Shibuya
agreement
bo
brands
det@@
eased
ented
garlic
hardest
junk
medi@@
motorbike
nutrition
observed
partly
quarrel
restricted
runny
skip
squ@@
2/@@
55@@
Cherry
Four
Haruki
Job
admitted
attitudes
automobile
cap@@
carriers
centres
certificate
cont@@
deeper
division
ets
fil@@
fool
ld
musics
seafood
sm
strawberry
tail
za
19th
Cal@@
DO
Latin
Melbourne
balcony
ced
curiosity
deciding
dedicated
differ
gi
interval
lang8
lation
poem
poses
ral
Madrid
Rome
Similarly
Wi@@
ancestors
arrival
book@@
cable
fission
hesitated
hostel
hybrid
ino
jog
meter
part@@
sent@@
shes
snowed
tune
Food
Kamakura
Kanto
LE@@
Mer@@
Miyazaki
Shinkansen
ars
bowling
celebrities
coins
ho
ler@@
let@@
monster
ory
pounds
steady
tank
8.@@
Alzheimer
Idaho
Ki@@
Math
app
confuse
contributions
departure
dresses
ening
han@@
harvest
hehe
ie
lasts
makeup
poli@@
post@@
reserve
russian
scored
sumo
tofu
unlucky
verbs
37@@
Holiday
bel@@
calories
candidates
chorus
confortable
cons
creatures
disgusting
draft
eleven
fare
frist
handling
honey
interior
linked
ners
objects
orders
plan@@
precise
spirits
spreading
stomachache
1995
A.
Accident
Clark
Dec
Dis@@
Foreign
Lang8
Manager
Qu@@
ai@@
ara@@
cherish
damages
dangers
desert
disappointment
endure
gadgets
luggage
namely
panic
prone
reaching
sho@@
signal
48
AR
Lady
ano@@
charity
chores
commuting
false
graduates
ics
leaf
markets
messy
represent
sive
sters
strain
thi@@
uni
yuan
3000
32
Cri@@
HAVE
Laura
Ne@@
Truelove
bas@@
chief
colleges
desperate
ea
ecting
element
engaged
examine
hairstyles
islands
kin
les@@
nat@@
pal@@
protecting
reliability
represents
shop@@
sit@@
suggests
thunder
translating
3/@@
Fi@@
NE@@
Okay
ality
announcement
appliances
champion
firework
founded
gre@@
gue
kanji
mobility
motion
paragraph
promoting
re-@@
tea@@
throwing
Father
Girl
Group
Jazz
Needless
SU@@
Ti@@
Wii
ceiling
collecting
equally
gy@@
heading
interaction
lar@@
lowest
opponent
pra@@
preferred
repeated
run@@
socks
sunlight
tively
utilize
38@@
67@@
Cambridge
Do@@
HO@@
Japan@@
Making
Out
The@@
ama
balanced
camps
consuming
criteria
divert
employ
endless
ft
hea@@
indicates
inst@@
leaning
manual
melody
miracle
overnight
researched
sheep
Am@@
Castle
Games
Han@@
ID@@
LY
Mat@@
SH@@
Tu@@
VERY
Whether
appreciation
articles/@@
che
combined
declining
detect
eco
ensures
excitement
fairly
ff
figured
forum
layer
lin@@
managers
play@@
pollen
qualities
ra
religions
remarkable
violent
waist
35@@
CEO
CO@@
Gen@@
Jesus
Los
Security
Vegas
assessment
boo@@
cam@@
cks
decent
drum
gratitude
head@@
identified
leak
lecturer
memorizing
replacement
steal
vocabularies
3.@@
99@@
Android
Mu@@
Policy
Service
aids
alright
confirmed
crossing
dy@@
far@@
heating
lively
opera
outlet
pur@@
sample
sch@@
selection
ships
tech@@
tidy
trick
zes
20.15
700
Based
Critics
IR@@
Sur@@
Ueno
alternatives
breathe
cked
doubts
eel
floors
ht
hum@@
key@@
kiss
longest
picking
properties
py
reluctant
ren@@
snowboard
supervisor
tar@@
top@@
tting
tures
00am
Atomic
CO2
Friend
Getting
Las
Really
Sakura
Sch@@
cally
complaints
cri@@
diligent
documentary
eliminate
ency
expert
graph
import
letting
listed
ser
sights
sy
tommorow
wich
worthwhile
y/@@
500@@
Greece
Nintendo
Story
T.
airline
ank@@
beginners
blow
breast
cabbage
diverse
downloaded
ena
graphics
hel@@
lens
magnificent
nail
opens
racing
researcher
revise
smells
stays
sustainability
talkative
tiv@@
world@@
34@@
Bul@@
Communication
EC@@
Gen
Hot
IC
MO@@
Miyagi
Nations
Never
Rec@@
administration
award
az@@
belt
bility
border
claims
collage
detection
dictionaries
disclosure
extensive
frequent
implies
ingredient
laid
list@@
lock
managing
mes
printer
roses
solid
tables
ura
web@@
.gov/@@
George
Kat@@
Molten
Roppongi
Tri@@
UM@@
abundant
allergy
apartments
appeal
believes
cations
edition
explaining
gener@@
grea@@
influenza
intellectual
investors
mins
orchestra
practices
ries
thanked
38
Brazilian
Certainly
Denmark
Ku@@
OM@@
Pacific
ators
bal@@
cafeteria
communities
contributes
corn
distant
distributed
duties
ements
freezing
frightened
gg@@
giant
hearted
implanted
indoor
infected
participating
patterns
penalty
sexy
shelf
unstable
5000
66
Coming
Fall
Saitama
Straits
Things
VE
Years
ately
boil
breathing
considerations
consist
cooperate
e/@@
kai
met@@
p.
pie
sions
stored
universe
upcoming
worthy
24th
4/@@
Above
SC@@
Speech
Square
Sumo
Super
Up
Yo@@
automatic
batteries
cat@@
cre@@
down@@
embarrassing
energy@@
facilitate
heritage
ical
logy
loneliness
nurses
ouse
recording
shadow
shoulders
slip
stuffed
vers
AI
ALL
Argentina
Care
Daily
Harvard
Kanagawa
Mal@@
Money
Program
Sam@@
Tsunami
Wall
aimed
athletes
boom
cent@@
centuries
cheapest
crash
distribution
existed
fir@@
health@@
injuries
inspiration
newest
reci@@
regretted
rescue
s.html
sections
sor@@
|
AD@@
Academy
Channel
DA
Get
Norrgard
Online
Or@@
Others
Space
Travelling
adverse
baggage
butter
centers
dies
experiencing
grandpa
itchy
ja@@
leadership
lier
lighter
mou@@
nevertheless
nuclear-@@
ome
peak
polish
praised
promoted
punishment
statue
stiff
tin@@
tom@@
65@@
7/@@
:@@
Earthquake
Ever
Special
TR@@
Ten@@
U.S.A.
Washington
anti
bikes
blocks
care@@
def@@
dev@@
ever@@
explains
hor@@
joyful
kan
mandatory
martial
oo
organ
organisation
planing
positively
propose
reasonably
sandwich
scare
settled
sli@@
split
welcomed
29th
62
AB@@
Aug
Basketball
Ber@@
Easter
Grammar
Law
My@@
SP@@
Sun@@
Toyota
UN
Z
complaint
conditioning
darkness
dates
disclose
ene@@
facility
forgetting
hunt
intelligence
intensive
interact
modified
passenger
rejected
residential
see@@
shelter
stream
tant
upgrade
whereby
Anime
Edo
HA@@
Issues
Mag@@
Somebody
Sony
Use
alert
artwork
bake
careless
conflict
cousins
decides
dness
dull
elling
engines
flood
foolish
justice
knife
piety
rain@@
retrieved
soaked
sour
tale
ti
timing
wont
6.@@
Bible
Blue
Greek
Kan@@
Kingdom
Nagasaki
Snow
Texas
Tim
authors
chronic
conc@@
concentrated
conf@@
crashed
dental
diagnosed
elled
faith
hitting
idol
interviewed
net@@
newly
ome@@
oni@@
parade
proceed
ranked
refreshing
resolved
sca@@
sion@@
sodium-cooled
tuna
writes
zu
1979
2009@@
37
Cars
Ginza
Portuguese
SE@@
accumulate
achievements
affairs
bul@@
distances
gl@@
grab
harsh
imported
ish
laziness
lon@@
ol
passionate
petroleum
principle
societies
stud@@
unfortunate
wed
weekly
09
18th
Avatar
Buddhist
Claus
Playing
Surely
Television
Typhoon
ah
ata
beers
childish
contacted
demanding
eg@@
encountered
fabulous
fying
gender
gla@@
hot@@
independence
inevitably
lifetime
lunar
oppose
pc
permanent
pic@@
pond
poster
pour
pronounciation
ration
sorts
steel
updated
val@@
xi@@
Bri@@
Filipino
Gar@@
Kin@@
NYC
Udon
W.
apples
approval
cans
characteristic
di
ere@@
es-@@
fre@@
gambling
globalization
gossip
hear@@
homepage
j
murder
nal
nationality
occupation
organizing
proficiency
reward
shrinking
sucks
sunrise
unhealthy
wer
worm
.php
1990
CITATION
Five
GM
Oc@@
TED
accessibility
al-@@
arti@@
blowing
bullet
circumstance
corporate
cy@@
defence
dramatic
enter@@
explanations
ghosts
honor
horses
konw
lenses
operates
pin@@
playground
podcast
praying
requests
shouting
snows
temper
troubled
undergraduate
wea@@
yer
08
5/@@
Governments
Ja@@
LOL
MRT
Network
Seeing
Self
a/@@
advertis@@
bamboo
basket
cancelled
cared
chest
corruption
cosmetics
crew
database
discipline
enjoyment
flash
impatient
oriented
possess
publish
ro
stared
stimulate
tru@@
unity
vaccine
wheelchair
30am
As@@
Asakusa
COM@@
Cantonese
Has
Make
Martin
Sal@@
Think
after@@
associate
banks
berry
broad
consent
donate
escaped
fal@@
hom@@
housewife
inexpensive
interpreter
lic
locked
minimal
misunderstand
natives
operated
organising
pencil
purse
rings
ths
tter
vol@@
wooden
000@@
8/@@
Cafe
Except
Girls
Pre@@
RI@@
Rose
Shin@@
Tennis
abandon
bay
bench
bilingual
bug
burst
categories
considerably
covers
deserves
eu@@
exchanging
expanding
fur@@
hers
hug
interface
porcelain
puppy
sadly
shu@@
sla@@
sol@@
stat@@
strictly
tender
thr@@
wins
Ab@@
Birthday
Given
Jones
Mrs.
Oxford
Project
Real
Tak@@
Ten
blanket
bombs
cheered
chin@@
comma
coverage
devastating
devote
environments
failures
house@@
hunger
in-@@
indi@@
initially
jin
overslept
para
phoned
pped
pressing
promises
qui@@
recipes
refrigerators
rope
shipping
shout
stopping
swing
tab@@
thoroughly
time@@
travels
300@@
Again
Bur@@
Chin@@
Considering
DO@@
Everytime
Izakaya
PR@@
Pen@@
abnormal
apo@@
athletic
backgrounds
depth
dumplings
fame
forests
heated
insisted
pit@@
poems
pros
pushing
queue
sk
sky@@
smoker
tivity
77@@
BTW
H1N1
He@@
Hy@@
Keep
Management
OU@@
Professor
Road
Sky
TIME
Town
USD
Wil@@
cho
confidentiality
curriculum
destruction
dro@@
gardens
gray
groom
hangover
inconvenience
logist
mil@@
mit@@
mixture
monkey
ocarina
occurring
org@@
persuade
psychologist
seller
slide
stepped
supplies
tal@@
theories
thrown
travelled
water@@
.shtml
42
Airport
Cap@@
Economics
Fin@@
Final
Identification
Middle
Part
Pu@@
Studies
addressed
approaches
ass
astonished
cares
category
costumes
county
cured
dea@@
desu
drops
enroll
entertaining
involving
lessen
meaningless
occasions
practising
pressed
purple
rated
sees
show@@
sincere
skipped
soba
stole
substances
tech
unexpectedly
ura@@
wether
Anyone
CV
Gi@@
IK@@
Ireland
News/@@
Niigata
Process
Queen
SO@@
Sy@@
Tomo
Welcome
behaviors
blew
celebrating
charm
emphasize
ew
faculty
frame
hairstyle
hates
hey
illustration
immigration
lands
leakage
lips
officials
profession
reads
selecting
sixth
tropical
unlikely
waiter
yogurt
03
Always
Council
Game
Imagine
LI@@
Narita
Normally
On@@
Review
ami@@
boarding
butterfly
cha
controversy
deer
defeated
desired
discussions
elegant
eness
fatal
finals
fire@@
fu
grad
hired
land@@
misunderstood
on-@@
organs
palace
power@@
princess
recieved
settle
slipped
supercritical
supporters
titles
vivid
Death
Healthcare
Soviet
Temple
Yu
beatiful
bers
blamed
cellular
chairs
chapter
containing
conversion
convert
folk
gentleman
happiest
memorable
monetary
ow
preserve
recycled
resist
rumor
shin@@
shoud
tele@@
tin
tought
ye
.net/@@
0000
1000@@
AC
Apparently
Bra@@
Cy@@
Hel@@
Hydrogen
Jo
Sol@@
Turkish
accessories
aloud
cafes
checkup
coo@@
defeat
extraordinary
globe
hop
indicate
kidding
laptops
medication
od
owned
participation
pilot
resting
reunion
rivers
satisfying
sized
snake
snow@@
subsidy
tle
une
walks
wow
3-@@
6/@@
Cause
Cla@@
Class
Dutch
Finance
Her@@
agencies
angel
ann@@
answering
apparently
arrangement
brea@@
clu@@
compli@@
components
conservative
convince
dilemma
dive
ected
enrolled
exhibitions
fication
grey
ket
marvelous
mutual
ney
officers
oning
packing
politician
purchased
recognition
t/@@
tch
thai
theirs
30th
ATION
Bali
Can@@
III
NO@@
Nov
Salt
acid
alcoholic
analyzing
auction
ban@@
communications
consequently
conversational
convey
decorate
em
hol@@
informal
interviewer
ist@@
logged
luxurious
march
med@@
penicillin
powers
prevents
roughly
spec@@
strengthen
test@@
traditions
ult
unclear
understandable
wheels
36
9/@@
900
90@@
BE@@
Ichiro
Organization
PSP
Ru@@
Sho@@
Ty@@
U.S
acquaintance
aga@@
aircraft
anda
antly
att@@
bakery
bones
bun@@
celebrity
contemporary
focuses
fridge
gum
ier
ii
know@@
lend
majored
multi@@
nest
nor@@
opposing
oversea
populations
poured
praise
read@@
rep@@
repeatedly
smokers
soldier
sou@@
spaces
splendid
staring
thou@@
tim@@
Cu@@
Disneyland
ICE
Maintenance
Men
Recent
absolute
agriculture
ani
asset
avoiding
beca@@
bee
bon@@
broaden
cap
construct
crowds
enemies
females
funded
guns
hardworking
ination
ink@@
liquor
mp@@
muscular
mutation
nar@@
noted
producer
prohibited
set@@
si
somethings
submitted
tely
tens
treating
tweet
voca@@
writings
39
67
Agatha
EM@@
Football
Fukui
Senior
abstract
accommodate
ambulance
bec@@
bling
buffet
conductor
constructing
conventionally
damn
destiny
diverting
dynamic
ech@@
eyesight
gam@@
generous
get@@
ginger
graphite
hiring
humble
iced
indispensable
integrated
memorized
pensions
perfume
prototype
quiz
recommendations
returns
san@@
sandwiches
solely
specialist
ultimately
waitress
waked
watermelon
26th
28th
36@@
Charles
Famous
Library
RO@@
Recentry
Restaurant
Sally
Start
Student
Weather
alism
approached
ari
backed
blackout
blank
browser
compromise
cop@@
criticism
decoration
disp@@
ece
examined
grasp
hop@@
ici@@
iling
imp@@
incredibly
inert
inspection
kat@@
lear@@
len@@
logic
mild
occupied
pile
rating
sation
shrines
temporarily
ust
well-being
writ@@
Bea@@
Building
DAY
Don@@
Frequency
Guam
Ham@@
IA
KFC
Kate
Kimono
Note
OMG
Rea@@
Thomas
YOUR
Yahoo
Zac
accompanied
alway
amusing
authority
bacteria
congratulate
crossed
directions
drastically
essing
exploded
green@@
instructions
joint
nails
p.m.
poetry
s.org/@@
targets
tat@@
turtle
unemployed
wider
BECAUSE
Cold
Eating
Live
Lord
PO@@
absorbed
achieving
asp@@
barber
consisted
cour@@
cro@@
cru@@
dent
develops
dropping
enrich
entitled
expenditures
fears
foo@@
gas@@
grant
humanity
hun@@
incurred
invasion
ired
isolated
kan@@
monkeys
onal
puzzle
salmon
screamed
simpler
specialized
spr@@
tha
tical
wage
watches
widespread
.cfm
1994
44
44@@
Ben@@
Br@@
Different
Fr@@
HR
Kar@@
La
Richard
Toeic
affecting
applicants
bel
bin
bow
boxing
cating
closest
competitiveness
conflicts
council
couse
coz
divorce
edit
eff@@
enjoys
fist
fluency
folks
gallery
hamburgers
heal
itable
magnitude
observation
ona
onions
printing
remembering
ric
scar@@
shine
shore
stea@@
survived
sympathy
threats
tissue
tted
wan
whi@@
Alison
Ap@@
Article@@
Baby
Democratic
Dream
MCYS
Master
Saint
Sarah
Tom@@
WILL
artistic
barriers
bi
bosses
controlling
ensuring
equ@@
fate
gadget
hou@@
intense
maths
mm
moun@@
ng@@
owing
parked
person@@
photo@@
plural
postponed
random
residence
scenario
sci@@
shoe
shrimp
sophomore
ssi@@
the-@@
tires
tory
uc@@
udon
ARE
DOE
Financial
Gold
Hard
Movie
Sara
bat@@
bing
buried
choo@@
corporation
deals
delicate
donation
erd
exited
favorites
furthermore
heads
jo
lev@@
manufacturers
meats
ough
ould
outdoors
oxygen
perception
roller
roots
seed
sentense
terminal
toast
unpredictable
75@@
:00
Culture
Eastern
Eiken
Following
GO
Ikebukuro
Indonesian
QQ
Roman
Scientists
Spending
Tan
Technologies
Tur@@
Yamagata
accomodation
ada
amongst
angle
approved
assets
bb@@
belly
biological
careers
certification
dealt
desperately
divide
drives
ero@@
ete
evaluation
exhausting
flaws
genetically
hu
ingly
keeper
kings
lated
mochi
noun
permit
quietly
rolled
sorrow
speci@@
sticks
trading
tricks
truck
ude
utilized
var@@
voluntary
woods
yaki
Australians
Bob
Che@@
DI@@
Eng@@
Kagoshima
Lost
Michigan
Ob@@
Okonomiyaki
Plan
Victoria
beating
ben@@
defin@@
ella
enterprises
exam@@
finishes
foremost
frustrating
functional
haircut
hits
homeworks
idiom
inv@@
lighting
low@@
obliged
photographer
pic
pper
prayed
rank
rubber
scope
screaming
severely
sha
shapes
shots
sooo
substance
timetable
trends
trivial
tual
valid
vending
visitor
weaknesses
yield
AV@@
Diffusion
IB@@
Originally
Overall
Tai@@
acceptance
appro@@
architect
backs
beliefs
bu
carrot
connecting
departments
equivalent
fits
foward
goo@@
historic
inj@@
insi@@
institution
issued
landlord
libraries
maintained
memorial
minority
modify
multi
nam@@
obstacle
pho@@
plum
potentially
prior
quote
scolded
sil@@
span
.1
Administration
CAN
Fi
Ger@@
Ju@@
Nam
Pop@@
SE
Seven
Universal
announce
av@@
branches
chan@@
cheering
combine
committee
en/@@
ence@@
evi@@
expen@@
expertise
full@@
hottest
hur@@
infection
intr@@
landscapes
lating
natto
notion
obesity
q
sence
sin
spe@@
wings
youngsters
Advisory
Cambodia
Current
EX@@
End
Full
Graying
Jason
Pat@@
Pres@@
ade
amateur
animations
appropriately
bat
break@@
capture
cooker
cost@@
desktop
diabetes
dialogue
eable
eclipse
engage
exiting
fortunate
fry
gging
hinder
indicated
knocked
lacks
nuclear@@
operator
opposed
para@@
qualifications
regulation
relating
rocks
sum@@
trusted
urge
viewers
villages
wrapped
32@@
47
Aichi
Arizona
Coffee
DE@@
Examination
Further
GOOD
Hmm
Jim
Jobs
Joe
Media
NASA
Te@@
aka
assured
ation@@
availability
berg
brains
bugs
calorie
chase
consult
dation
eastern
failing
has@@
illy
lists
mechanism
periods
pitch
prosperity
readily
retain
simultaneously
sink
sue
towel
uniforms
wo@@
wrap
y_@@
Bon@@
Linux
May@@
Nick
Peace
Practice
Silver
TE@@
Takoyaki
Website
accuracy
act@@
advancements
animated
apologized
attendant
attracts
bachelor
cc@@
chess
combustion
cookie
criticized
dit@@
economies
estimate
faults
flag
gloves
grapes
ick@@
intervention
ires
journalist
lane
manufacture
mers
mini@@
physi@@
pudding
raises
relate
renew
reporter
revenge
ringing
rises
secretly
shool
significance
stew
tile
ultimate
viable
weaker
zz@@
Angeles
Ball
Far@@
Fer@@
Guangzhou
Ice
Ver@@
airplanes
alleviate
arr@@
assumed
bears
briefly
c/@@
comedian
comunicate
consultant
dancer
dances
dated
emit
energies
facial
fm
grammatically
instantly
ize
lap
malls
mat@@
melt
moderate
mon
ono
oring
pains
painter
pharmacy
profitable
punished
ruined
sam@@
sticky
suited
tiredness
tives
units
whoever
zy
87@@
Beautiful
Chan
DC
Enjoy
Gallery
LIFE
League
Marathon
Max
Mus@@
Net
Opera
Prince
Somehow
Studio
accompany
bathtub
beds
boards
captain
cit@@
content@@
counter@@
covering
deci@@
dem@@
dignity
dou@@
eliminated
esp@@
fails
filling
fixing
heroine
hills
illa
langu@@
law@@
lo
mile
ole
pouring
reg@@
rolling
sing@@
spouse
strive
strongest
suspect
tiger
upstairs
van
visible
wat@@
whilst
yu@@
2009/@@
85
Bad
Beside
Cou@@
Des@@
Junior
Lunch
Ocean
Often
Saudi
Training
ables
absorb
becasue
beloved
compositions
consciousness
dementia
demographic
describes
dor@@
downturn
drain
dressing
ense
flexibility
flowing
grabbed
gran@@
heared
ign
illustrate
inadequate
invisible
lawyer
lemon
manpower
mornings
mushrooms
naked
ore@@
outgoing
pad
panels
pillow
portrait
ranking
ruin
sessions
specialty
swee@@
tain
theaters
tho@@
tit@@
toxic
ts/@@
ves@@
volunteering
Aikido
BU@@
Finland
Florida
Haha
Ir@@
Ky@@
MAR@@
Mao
Mobile
Republic
Royal
Yen
accepting
appliance
assistants
attach
challenged
civilization
clip
competent
confusion
cotton
debt
depressing
devoted
disabilities
disturb
divorced
educa@@
encies
er-@@
farmer
fro@@
futon
genre
glance
hair@@
harmony
hiding
jail
kid@@
lasting
laughter
lean
lit
nerves
partial
proc@@
real@@
reform
sely
ush@@
viewpoint
2014
69@@
99
Anne
BO@@
Bill
Dad
Gr@@
Grand
HE@@
Honda
Innovation
Pla@@
Rain
Sept
Sum@@
Tha@@
Twilight
audiences
bitten
cave
connections
couldn
cow
defend
diversity
fic@@
frustration
gent
hesitation
hockey
lifestyles
magical
melted
ort
partially
peach
peculiar
principles
proves
purchasing
rat
reflected
ried
runner
shell
spea@@
steadily
stove
struggled
sud@@
tenses
thy
ures
warned
weigh
wid@@
07@@
43
Bank
ET
Open
Philippine
Upgrading
WITH
Wind
albums
au
bless
browse
campaigns
cents
combat
consumed
countless
cricket
criticize
develop@@
devil
ean
eni@@
ental
entertain
evolution
free@@
freind
geography
grounds
identifying
injection
intern
legend
lined
liver
loads
longing
mel@@
mic
mo
mp3
msn
nec@@
noises
nuclear_@@
officially
oro@@
ounded
pal
pas@@
policeman
prominent
references
respective
restroom
samurai
seasonal
shit
sleeps
speeches
sty
sweating
teen
twins
univercity
Advanced
Alex
Becouse
Ca
Countries
Ke@@
Manpower
OO@@
PCs
Sounds
aliens
cheating
chopsticks
cial
clean@@
conver@@
corporations
corrects
coughing
deposit
eagerly
earth@@
elected
emotionally
even@@
fam@@
freinds
friendships
global@@
guidance
handmade
hardware
how@@
ids
itch
ith
king@@
knit
low-@@
outline
owns
p/@@
panel
paperbacks
poison
salty
sat@@
slee@@
sn@@
societal
stro@@
tear
travelers
tsu@@
vacuum
vel@@
violation
yama
2009/0@@
54
Church
Commission
EV@@
Genetics
HAD
Holland
LIKE
Meeting
Post
Remember
Sil@@
Ste@@
Sundays
Ther@@
Trip
Vinci
adapted
aftershocks
aki
ania
beautifully
bli@@
bothering
breads
console
dering
dig@@
editor
err@@
fies
ham@@
haven
human@@
ind
kit@@
lled
loser
marked
mat
monuments
oke
patent
personalities
prince
pro
publishing
reliance
richer
salaries
signals
sixty
skate
tattoo
vary
vel
was@@
22nd
68@@
AI@@
Article
Ben
Bon
Bor@@
Code
ENGLISH
GW
Half
Irish
JAPAN
Main
Medi@@
Mid
Pr@@
Programme
Rather
adoption
ands
ater
aw@@
bab@@
beaten
belonging
classified
coincidence
edu@@
ety
expansion
handicapped
heavier
infrastructures
lag
mal
nd
neighboring
pays
pdf/@@
pound
precisely
pul@@
red@@
reject
relaxation
retail
sai
spo@@
sport@@
stylish
surgeons
symptom
vet
56
Bro@@
Conclusion
Dance
Ed@@
Engineer
Lisa
ME@@
N.
Natural
UNIQLO
Val@@
addiction
apps
arises
attracting
automobiles
bussiness
chu
coff@@
comming
component
concluded
cooks
crack
craft
cuts
dd@@
drawbacks
ela
favorable
graying
guards
imposed
inspire
maid
masters
matic
moto
neighbourhood
nie
octopus
oned
poly@@
reli@@
responses
rum@@
satisfactory
seaside
shook
short@@
stom@@
summarize
teri@@
too@@
tum@@
unconsciously
vegetarian
wealthy
.3
120
196@@
2007@@
27th
ATE
Buddhism
Correct
Dec@@
Faithfully
Fire
Heritage
Medicine
PR
Pri@@
Rice
Samurai
Shrine
Star@@
archi@@
atly
balloon
becuase
beforehand
browsing
bubble
calculate
cashier
convention
cosmetic
desires
ial
impolite
inal
independently
iri
lan@@
lead-cooled
lid
lifespan
literacy
locate
merit
mi
nationalities
necessities
nig
op
pin
pumpkin
recom@@
referred
ress
satellite
secretary
senses
shee@@
skirts
soooo
spiritual
stir
thief
trainer
vable
visits
winds
//www.n@@
1033
CCTV
Chile
Da
Dai@@
Dar@@
ESS
HI
High@@
Hon@@
Karate
Mil@@
Morning
Tree
affection
alized
allowance
attributed
beli@@
cloths
collapsed
conditioners
constraints
contro@@
cource
cows
dat@@
decreases
diagnosis
ette
favour
ferry
hoo@@
imitate
inch
inflation
insect
lations
laun@@
lent
logically
nonsense
pod
rugby
school@@
sem@@
sher
shuttle
sight@@
stem
swear
tape
turkey
your@@
000yen
10.00
19.00
3days
Better
Budget
Clearly
Foundation
HT@@
Huntington
J.@@
Ji
Kor@@
Merry
Mixi
Nan@@
Native
PS@@
SF
Shakespeare
Soba
Sub@@
Very-High-Temperature
allocation
alphabet
ambition
baking
beacuse
bond
bulb
capabilities
chart
counting
declared
defects
dia
discouraged
dragon
e.@@
export
fashioned
fold
fulfilled
ght@@
guided
hid
hood
https
ight
impressions
lamp
locations
masks
ored
pea@@
pertinent
pics
saki
salts
sigh
tually
uma
wheat
°
00yen
4.@@
Ban@@
Bay
Conference
Czech
Environment
Ethics
FOR@@
Fac@@
Gaga
Israel
JO@@
Jun
Mel@@
Mountain
Onsen
Sou@@
Swimming
TI@@
Video
Whereas
acy
affair
architectural
baths
catastrophic
chemicals
closet
commented
commitment
continuation
crab
disastrous
essence
garage
gation
gear
generates
glo@@
globally
guage
informing
installation
investigate
ive
jewelry
kawa
knees
ky@@
lec@@
lem
lian
litt@@
ller
marine
meantime
mere
metro
microphone
mud
nasty
nit@@
oka
oppotunity
pairs
payed
peaple
ppl
practically
psychologists
pt
rap
reactor@@
rev@@
schedules
september
stresses
sword
tal
that@@
unavoidable
wal@@
watch@@
wives
....
//www.gen-4.org/Technology/systems/@@
1993
2008@@
2years
Break
Euro@@
Henry
Highway
Lin@@
Obon
Physics
Piece
Saturdays
Son
Unless
WE@@
agi
alike
annoy
ast@@
busier
calligraphy
checks
compelled
cruise
dam@@
dar@@
debates
delight
ek
essed
evenings
fucking
generators
governmental
leaking
mayor
measured
mistaken
nutshell
occurrence
pipe
preventive
projected
questionnaire
registration
reliant
s.pdf
substitute
tales
thereby
trapped
tre
ul
wednesday
year@@
.The
05
199@@
95
Boys
Christ
Englsih
Giants
HE
Hat@@
Keeping
MBA
PE
PIECE
Sadly
Web@@
allergic
circulation
consulting
credits
defining
describing
dge
displays
eci@@
eli@@
exploring
fights
guaranteed
immune
ino@@
introduces
jun@@
knitting
lifes
monitored
mosquito
piled
poorer
poorly
preference
priest
priorities
prob@@
pronounced
relying
resident
restrictions
runners
sand@@
sensor
suke
tai@@
trigger
ume
undergoing
vinegar
vocal
21@@
31st
41
Books
Buddha
Car
Chemistry
Edison
Exam
F.
Han
Iraq
Je@@
Kha@@
LE
Meiji
Plant
Por@@
Running
Super@@
Titanic
Wor@@
agricultural
arian
asi@@
ath@@
attain
bled
blo@@
breakthrough
buttons
charges
chasing
chs
circuit
competing
demonstrated
dependence
detected
donated
eman
encouragement
extension
finances
floating
fulness
gged
goodness
grape
host@@
ital
kitty
lim@@
lip
marvellous
melting
obligations
ongoing
podcasts
pollute
pretended
pub@@
pubs
recite
relay
responded
samples
sashimi
screening
sociable
sub
suck
switched
thirsty
threatening
tice
tioned
tun@@
unlimited
utilization
wisely
1500
1980
2-@@
Bal@@
CE@@
CG
Ge@@
Insurance
Kam@@
Naturally
Petersburg
Policies
Soccer
Thanksgiving
Uni@@
Vienna
acquaintances
acquired
alien
alter@@
america
assure
believing
bins
calmly
catastrophe
chill
chip@@
cover@@
demonstrate
dyed
elec@@
ensured
entr@@
euro@@
fathers
fi
flo@@
four@@
greedy
learns
nabe
pancake
password
profound
rational
rods
sey
sizes
spac@@
speedy
tains
thea@@
tommorrow
tragic
ttering
wishing
-based
23rd
250
5-@@
Bibliography
Change
Drama
Early
Golf
Ha
Id
It@@
Kyushu
Louis
Market
Materials
PEOPLE
Transport
V.
Walking
accurately
appealing
arrives
ature
behalf
cage
cking
deaf
eless
emphasized
ethics
ethnic
exhaust
famili@@
halfway
hara
links
naive
orientation
overwhelming
pale
paragraphs
preparations
questioned
rage
recalled
refer@@
reviewed
reviews
sim@@
sir
smartphone
soda
spectrum
spends
spider
starving
sto@@
story@@
supp@@
tablet
themes
tre@@
tunnel
unnatural
unsafe
unwilling
venture
viewed
vitamin
2008/0@@
AD
App@@
Boy
Civil
Computers
Coo@@
Cro@@
Den@@
Diego
Dou@@
Gre@@
Iran
Likewise
MA@@
Ori@@
QU@@
Regards
Solar
Sport
WOULD
Xmas
accumulated
ads
allocate
ancy
angu@@
bac@@
bananas
bble
bookshelf
brake
carrots
chu@@
circu@@
conquer
considerate
detrimental
dong
earliest
eighteen
excursion
exper@@
experimental
farming
fries
geo@@
greet
inappropriate
initiative
instruction
interpretation
ju
kei
lia
lightly
loan
median
minimized
puzzled
quicker
regrets
scor@@
scra@@
scratch
sensation
smelled
stically
suspicious
tori@@
undeniable
watashi
willingness
witch
witnessed
yelled
.com/news/@@
101
AF@@
Corporation
Iphone
Jan@@
Ken
Light
NEW
Phone
Pop
Scotland
Teachers
Team
Toy
Uranium
Wal@@
acute
aku
ass@@
ate@@
carries
classrooms
clinical
commuter
competitors
con
container
creature
crush
deadly
dictation
discriminated
educating
gon@@
info@@
joking
kon@@
laboratories
modest
nerve
nuts
ov@@
preposition
publi@@
rays
reaches
restriction
rit@@
string
teamwork
tedious
tracked
umi
unt
uring
wandering
197@@
Ann
Anonymous
At@@
CA
Concerning
Fleming
Greenwich
Hakodate
Inception
NUS
Naruto
OUT
PRO@@
Penicillin
SHOW
Sin@@
Tiger
Travel
a-@@
atelly
auto@@
backup
ben
bru@@
chin
cia
confess
contacts
counted
dow@@
downstairs
emp@@
enhancing
esses
fierce
flute
glory
gods
grants
hab@@
handy
hosted
hurried
informa@@
ini
inventing
lab@@
life@@
minu@@
monsters
mun@@
naughty
obey
oud
pacemaker
ples
posed
prejudice
pressures
primarily
rail
reflects
resigned
rolls
scarf
serial
ses@@
siblings
sop@@
spoon
steamed
steep
strawberries
supplements
theft
tightly
ting@@
tolerance
tones
trace
tran@@
tty
vague
warn
whit@@
3G
4-@@
47@@
6-@@
66@@
Adam
Austria
Cat@@
Doing
Engish
Fre@@
Garden
Hsien
IF
Jon
Kon@@
Pennsylvania
Perfect
Princess
Say
Viet
Word
about@@
ach
addresses
admired
allo@@
anne
awarded
backpack
blu@@
budgets
butterflies
chee@@
cockroach
compl@@
cozy
currency
ections
emitted
enabled
exotic
firms
format
formation
formu@@
groceries
hazard
incur
ity@@
journal@@
less@@
mining
mom@@
moms
other@@
ous@@
pickled
radish
reserves
romance
row@@
sakura
shima
sliced
subsi@@
suitcase
suspended
thats
titude
treats
union
vis@@
120@@
Belgium
Changing
Comparing
DJ
E.M.
Expo
HI@@
Hakone
MS
OECD
OVER
PS3
Problems
Put
TER@@
Traditional
Unfortun@@
Vol@@
Way
Within
Ya@@
Yukata
abi
adjective
advertise
affluent
analyse
annually
arrogant
bou@@
boun@@
canada
charging
cheat
coke
colourful
converted
deck
dings
disco
eas
eas@@
eng
expec@@
explode
hard@@
healing
hin@@
holder
idiot
inefficient
mach@@
males
mock
needless
neighbour
oko
port@@
posi@@
precautions
pronunciations
ranging
receptionist
regional
rival
roast
seaweed
shelves
spectacular
stal@@
sth
stretch
suspected
taller
tel@@
translations
typhoons
ums
und@@
undoubtedly
usive
very@@
world-@@
wrist
york
/200@@
2020
CN@@
Catholic
Challenger
Coun@@
Doraemon
Excel
GO@@
Hen@@
MP3
Mie
Much
Otaku
PE@@
PER@@
Sharing
THEY
Venice
ady
ange
anticipated
arising
bargain
basics
bathing
bun
cellphones
chaos
chers
congestion
controls
ction
dai@@
deemed
delete
diffrent
disk
dless
ei
electro@@
elephant
ement@@
envious
excuses
feared
forma@@
fs
hazardous
hurting
impose
info
kar@@
label
lling
logi@@
mice
n/@@
offspring
onic
peri@@
pills
placement
pockets
policy@@
protein
realizing
rehabilitation
removal
resign
reverse
sciences
shameful
simplified
sity
sphere
statements
sty@@
syn@@
teenage
thriller
tion/@@
toll
tours
tryed
tto
twin
universal
unk
warmth
worlds
0000@@
1987
46
8-@@
Angels
Anyhow
Ari@@
Aussie
CM
Dawn
ET@@
Fe@@
Jay
Literature
Lucky
Malaysian
Mari@@
PL@@
Particularly
Police
Resort
SI@@
Sei@@
Supercritical
Tar@@
Taylor
Tim@@
Train
Ye@@
Zoo
acknowledge
administrative
arrangements
asthma
athlete
ats
benef@@
bento
bullying
burnt
cation@@
corrosion
declined
earing
eries
excess
ford
gen
grow@@
hospitalized
iTunes
ile
institutes
intersting
jima
layers
login
louder
nostalgic
overwhelmed
pals
paradise
peacefully
prepositions
provision
ption
ran@@
recomend
recovering
regi@@
sentenses
sits
sneakers
surgeon
threaten
turbine
turing
uri
vain
vampire
weddings
wee@@
1990s
2015
2B@@
52
59@@
64
7.@@
88
Cancer
Economist
Gas
Hearing
Hol@@
Inside
Java
Loong
Net@@
Pizza
Pokemon
RMB
Tor@@
Wonderland
accessed
ao
apology
approve
article/@@
backache
businessmen
ces@@
clerks
commerce
concentrating
decorations
depres@@
developers
did@@
eco@@
emi@@
exhibit
feeding
fel@@
fighter
fini@@
freshmen
gardening
grand@@
inclined
ira
july
landed
ligh@@
meanwhile
mes@@
midterm
plu@@
preferences
pretending
pump
queen
redundant
rela@@
repeating
sequence
solo
study@@
tap@@
threatened
tiveness
tracks
usu@@
versions
withdraw
workout
zi@@
"@@
4000
51
Academic
Andrew
Ara@@
Az@@
Bridge
Christianity
Dark
Dog
ENT
Fro@@
Iwate
Kind
LOVE
PU@@
Photography
Ry@@
Samsung
Sat@@
Tam@@
Top
Vol
WBC
accomplished
activ@@
acu@@
anced
and-@@
bit@@
brighter
businessman
clay
cleared
counts
desirable
desserts
dest@@
destroying
discovering
distress
duc@@
eared
ees
eled
eling
ept
forbidden
gawa
german
highlighted
hilarious
husbands
ica
kicked
kissed
kn@@
lic@@
liking
locals
lung
merits
muggy
nowhere
ool
open@@
ora
owning
packages
posture
presenting
pun@@
rehearsal
resolutions
separation
sixteen
suffers
teammates
technologically
thirteen
tian
tremendously
uki
uti@@
vation
vessel
wound
wri@@
zen
07
1900
AY
Ang@@
Haneda
MA
Mar
Nabe
Norway
Plants
SS@@
TING
Teaching
UL@@
Wang
accidental
actresses
adventures
anese
arguing
aud@@
bal
bare
brid@@
buil@@
coaster
constitution
corresponding
coud
cust@@
dee@@
deter@@
determination
eal
ective
esteem
firmly
friend@@
hardship
hectic
inning
intro@@
inviting
juggling
lakes
lers
log@@
lt
lun@@
maximize
necklace
obsessed
ony
pain@@
panda
prevalent
prizes
quo@@
recruit
scream
semi
sewing
shar@@
sitcom
slides
stand@@
swimmer
tasting
termin@@
thursday
timer
trail
ttle
ues
usi@@
waiters
wander
woken
worship
04
Coast
Danish
Disease
Exp@@
Gundam
Heart
Labor
Line
MacBook
Musical
Question
Sk@@
Sri
Stone
TEST
Till
WHO
Whit@@
ack
ald
ankle
apparent
articl@@
ary@@
assess
blocked
boyfriends
cheep
compose
concer@@
consistent
crane
cucumber
dolphins
ecological
elderly-friendly
elderly@@
fruitful
fur
genuine
girlfriends
gn@@
handicap
holi@@
homesick
iPhone4
incomes
ium
ja
je@@
kitten
kno@@
laying
loyalty
mineral
ood
optional
owe
page@@
preserved
prompt
rai@@
recieve
restrant
royal
servant
sleepiness
sole
surfed
takoyaki
tful
thermo@@
upgraded
varied
wil@@
zer
.co.uk/@@
01
3M
6.html
:30
Architecture
Auckland
Baseball
Berlin
CON@@
Cho@@
Cost
Date
Dem@@
Engli@@
Environmental
Eschede
FIFA
Hanami
Hea@@
Justin
Know
LCD
M.@@
MSRs
Nanjing
Nuclear@@
Op@@
Out@@
Outside
Pan
Poor
Roadmap
Small
Stop
THER
UC@@
WHEN
Win@@
aired
alist
appointed
bookstores
boredom
clips
codes
coll@@
compensation
compromised
continually
developer
een
employ@@
ential
estates
exer@@
exit
fast@@
fireflies
frying
gains
grandchildren
hereditary
heroes
influential
ing_@@
irs
kimchi
lions
mushroom
nam
organizer
originated
poeple
poss@@
processed
prospects
publications/@@
releases
remedy
restarted
revised
sauna
squid
susceptible
territory
thly
tissues
uncertain
univ
ush
versa
viruses
08@@
1970
Active
Bel@@
Chi
Companies
Competition
Days
Dome
English@@
FF@@
Forrest
Glee
Ho
JI
Ji@@
Name
PP@@
SUMMER
Sake
Sex
Stra@@
Tourism
Trade
adds
ak
analyzed
ase
booking
cabinet
cates
chang@@
cin@@
completion
dancers
dep@@
depletion
detective
disappoint
disliked
dominant
econ@@
ener@@
envelope
financing
founder
ggy
heart@@
hight
ing/@@
kk@@
kotatsu
las
lig@@
lyric
mation
neat
negatively
peers
postcard
prayer
prec@@
pregnancy
progressive
reali@@
recorder
ree
reser@@
ron
saf@@
scarcity
separately
shampoo
shares
similarity
skillful
spoiled
studyed
tan
toilets
united
use@@
user@@
verse
vocation
wards
waterfall
wer@@
wheather
wipe
wiped
word@@
worsen
yak@@
zu@@
1.pdf
1980s
1984
ABOUT
Arabia
Blog
CP@@
Congress
Dr.
Express
Ghibli
Helium
Lea@@
MP@@
Ming
Mit@@
N.@@
Regardless
Shinto
Som@@
UP
VOA
You@@
acquainted
alcho@@
awards
behaved
bible
bil@@
bles
captured
commercialization
confidential
definite
distinct
dom@@
domin@@
duration
expose
extract
fat@@
flights
frank
goldfish
greetings
hairdresser
humorous
ick
ida
identi@@
ille
ills
incentive
ineffective
inn
jap@@
ket@@
liber@@
lities
lla
loses
nicer
oro
ourself
pad@@
painters
pill
pon@@
pottery
preliminary
prescription
refu@@
removing
routes
sal
scent
sev@@
shorts
solves
stm
strengths
sus@@
tations
tening
thes
tier
tou@@
tunes
tured
ui
very-high-temperature
wn@@
-friendly
0.@@
00AM
Afterward
Al
Alexander
Bou@@
CA@@
Char@@
Cra@@
Curry
FC
FRIENDS
HongKong
Jin@@
Key
Kumamoto
Manchester
Mid@@
Nam@@
OK@@
Place
Product
Rainy
Swiss
TA
Technical
Ton@@
Tou@@
Wh@@
advancing
afterward
ako
alize
anti-@@
arri@@
bud@@
bum@@
carpet
commercials
counseling
defective
demonstration
density
designated
doubted
drea@@
duce
embar@@
employability
enjo@@
ests
forcing
ful@@
gig
icecream
idences
inhabitants
initiatives
inten@@
italian
lawn
lee@@
masterpiece
melon
monthes
of-@@
pick@@
rats
res
restrict
rewrite
scattered
soak
somthing
starbucks
stealing
sweated
tag@@
them@@
toeic
unch
usable
witness
10/@@
2.html
53
ABLE
Accidents
BIBLIOGRAPHY
Band
Congratulations
Cooled
DPJ
Defense
Emily
Er@@
Finding
Fourth
Hiragana
Humans
Japanease
Kou@@
Mars
Nepal
Okayama
Photoshop
Season
Site
Sodium-Cooled
Therefor
Tsu@@
Water@@
adorable
bankrupt
brow@@
but@@
chea@@
cheated
cicadas
cola
compact
complains
comprehensive
consul@@
content/@@
cultivate
depleting
dered
diffic@@
dispute
drought
dumpling
ector
eive
emer@@
endangered
enterprise
eth@@
exchanges
fact@@
famouse
forehead
fragrance
frog
hal@@
hike
hiragana
hugged
imaginary
inferior
itis
ken@@
loyal
mailed
mainland
mani@@
maternity
mistook
nea@@
nur@@
old-age
onsen
overweight
pa
pay@@
peop@@
pianist
planting
pole
rag@@
reports/@@
reviewing
shiny
shor@@
spectators
sper@@
stocks
swa@@
sweater
sweaty
ula@@
ven
wear@@
welcoming
ye@@
zi
1985
400@@
5.@@
Allen
Beer
Bud@@
CET
CH
Chris
Ei@@
Formula
Gener@@
Hayao
Inc
Incidentally
Lion
Ly@@
Mizoguchi
Pal@@
Pl@@
Rachel
Smart
Valley
Want
War@@
Waseda
acupuncture
adap@@
adopting
ank
anny
aru
asian
bits
boy@@
cer
computing
counties
cy
deleted
delightful
desks
distribute
dreamt
ege
employing
energy-@@
engaging
eting
exaggerated
findings
fitted
fore
fru@@
guidelines
honeymoon
html
individually
insomnia
itting
kara
light@@
linguistics
losses
lows
medals
misuse
mul@@
navy
neuro@@
news@@
operational
particles
pharmaceutical
po
polluting
progressing
recon@@
represented
risky
scri@@
sel
semin@@
sensible
side@@
snakes
sr@@
ste
tec@@
thes@@
thro@@
tis@@
transformed
tricky
trumpet
twilight
ushi
utmost
valued
vin
wages
-to-@@
//www.iaea.org/@@
A.@@
ABC
Cat
Chang
Country
Dea@@
Excuse
Frank
Glo@@
Gossip
Green@@
Gro@@
Hanshin
Heaven
Hongkong
Hor@@
IKEA
Industry
Jean
Ken@@
Knowing
Men@@
Monica
Nicoll
Northern
PDF
Paper
Physical
RAINBOW
Subject
Theory
Trivago
YO@@
alization
ards
attempts
beats
boomers
bout
burg
bury
candles
churches
cir@@
claiming
clear@@
closes
cology
copies
criti@@
dig
disturbed
doesn
ef@@
emperor
foster
from@@
fulfilling
gal@@
helpless
hus@@
incapable
ind@@
installing
itation
kong
le-@@
lightning
mea@@
messenger
mp
oma
pancakes
perspectives
phenomena
politely
providers
rebuild
recognise
repairing
rescued
rocket
rows
scool
scuba
secured
shaping
shortly
sketch
strangely
stretching
supercritical-water-cooled
technically
teens
thers
thrilling
tion_@@
tt
understands
underwear
unreasonable
updating
vers@@
wrestlers
writen
…
48@@
49
ANA
Admittedly
Bas@@
Consumer
Dev@@
Discovery
Drinking
Emma
FA@@
Fiji
GB
Gal@@
Hal@@
Human@@
MIT
Nat@@
Nobel
Post@@
Sea@@
Southeast
Sure
Swedish
TION
Thesedays
Were
abortion
ambitious
antique
anyways
are@@
argues
aroma
basi@@
bes
business@@
cell@@
chili
comparable
costed
democratic
deprived
diploma
dir@@
dolphin
evolved
exceed
exclusive
execute
expres@@
fav@@
fence
fes@@
folding
furious
gang
gor@@
guides
holy
icon
import@@
inate
interfere
inventor
jogged
judges
kills
lacked
lighten
lized
lls
lounge
mess@@
night@@
objectives
organizational
outlook
overlooked
perceived
pes
pessimistic
placing
quoted
respon@@
rewarding
roasted
sau@@
sends
serv@@
seventh
skunk
spoil
sponge
st-@@
stance
stricken
subsequently
sut@@
tary
tended
thrilled
tra
transfered
transit
tray
unprecedented
unsure
varieties
versus
volcano
willingly
zo
!@@
-0@@
//news.bbc.co.uk/2/hi/@@
/n@@
06
20000
30pm
Acc@@
Andy
Avril
Betty
Clothes
Control
Data
Dor@@
EIKEN
Englsh
FROM
Fra@@
Issue
Jewish
Li
Lunar
Miami
Natto
Near
Ok@@
Pur@@
Rel@@
Retirement
Stanford
T.@@
Throughout
URE
Words
Yakiniku
actu@@
advantageous
ambiguous
arity
awhile
banking
cement
cheek
choir
cky
compe@@
consultation
controller
correc@@
crowed
ct
devastated
diarrhea
disability
drastic
entrepreneur
enviroment
es.@@
establishing
ester
extracted
fe
fic
fli@@
fountain
gas-cooled
grader
grammars
guit@@
gun@@
hiko
hint
hooked
ign@@
imaging
index@@
inherent
justify
lit@@
majors
materi@@
max
mem@@
merry
mono@@
nan
neutron
nicely
novelist
omo@@
ousness
pigs
prefectures
punk
queues
ram
reac@@
releasing
remenber
safe@@
smarter
statues
technology@@
tened
theoretical
there@@
torture
trav@@
trousers
tuesday
urant
uro
usefull
utility
vari@@
wonder@@
.c@@
2006@@
360
Air@@
Believe
CNG
CR@@
Crea@@
Daniel
Digital
Director
Egyptian
Employment
Enlish
GR@@
KNOW
MIN@@
MacDonald
Milan
OUR
Older
Pro
Read
Resources
Rs
ST
Series
Shar@@
Shu@@
TOKYO
TT
Viet@@
Wars
aches
anticipate
aqu@@
assert
bacon
basil
ble@@
bloody
bothers
canteen
compensate
conducting
continent
disc
ects
elder@@
ene
ero
erous
esca@@
evaluated
exercised
extre@@
flavored
flavors
flows
followers
fulfil
gifted
guitarist
hiro
intentions
intonation
judgement
katsu
los
mastering
mm@@
motto
nes
ond
orial
palm
paper@@
patiently
plz
pointing
possi@@
postpone
pursuing
pursuit
quitting
refrain
renewed
replacing
rewarded
ruins
salesman
singapore@@
slopes
sni@@
spar@@
spices
ssed
stalls
subsidized
sustained
tery
thesedays
tings
tobacco
ual
univer@@
vy
wakes
wash@@
who@@
wire
wit@@
wom@@
yan
.com/article/@@
//gif.inel.gov/roadmap/pdfs/@@
1&_@@
1988
1991
AP
Anybody
Beach
Blood
Brisbane
Bun@@
Check
Chocolate
Conversation
DR@@
EU
FU@@
Fri@@
Had
ION
Jun@@
Mas@@
Micro@@
Portugal
Prague
Results
Sky@@
TER
Trans@@
Tube
USB
WOR@@
Yang
Yellow
adjusted
and_@@
ashi
ation-@@
brushing
buys
caps
ceremonies
chemically
chickens
cocktail
coldest
comparatively
contra@@
contries
correspondence
cries
crow
discounted
discrimin@@
dist@@
emerging
enced
escaping
fiance
forming
fragile
frankly
fusion
gently
gross
headset
igh@@
interpret
intimate
inventors
iring
jelly
judged
kets
legislation
likelihood
litter
live@@
logy@@
mac
musicals
newer
outh
pling
produc@@
rally
renting
scold
ski@@
smartphones
someting
specialists
stray
sup@@
surpri@@
tagged
tee
televisions
tempo
the_@@
train@@
traits
trustworthy
twenties
underst@@
undesirable
ution
wil
will@@
wool
zhou
AME
Access
C.@@
CE
CS@@
Case
Christie
Fla@@
Fun@@
HOW
Heroes
IG@@
KO@@
Kim@@
Kitty
Mail
Micheal
Ms.
NewsAsia
Nu@@
PI@@
Problem
REALLY
Sam
Sel@@
Shin
Sim@@
Six
Taka@@
Tan@@
Tat@@
Ter@@
able@@
acquiring
agu@@
amazingly
asia
bacause
beverage
blessed
blog@@
burdens
carelessness
cing
cles
commun@@
complexity
containers
conveniently
couch
couldnt
cum@@
deficit
demanded
democracy
dim
direc@@
discourage
diss@@
dissapointed
duck
eggplant
esi@@
excercise
ext@@
famine
fan@@
fc@@
fif@@
flesh
floods
fog
generator
hampers
hesitating
honesty
ically
ico
initiated
inserted
intresting
kilograms
leaked
listens
manually
murderer
oes
operas
ories
pee
pee@@
performs
pools
referring
rou@@
sar@@
science@@
seasoning
silently
singapore
softly
soybeans
static
stoped
strea@@
tattoos
terrified
thieves
ud
umbrellas
vitamins
whale
wheelchairs
&id
1&@@
2weeks
98
ASAP
Accounting
Army
Call
Charlie
Chicken
Clo@@
Dead
Dong
EV
Em@@
Feeling
Gay
Hoping
IBM
Level
Movies
Muslims
Of@@
P.@@
Reuters
Save
Short
Song
Toyama
Ur@@
William
abbreviation
applies
attendance
audition
awa
balloons
biting
bold
cle@@
clue
comedies
conditioned
congratulations
containment
declare
despair
deter
distinctive
earnings
ele
emerged
enforced
es_@@
eta
etly
executive
faithful
featured
formula
forword
fresh@@
frien@@
gar
gie
glu@@
grated
grief
handled
helicopter
hn
hour@@
ican
illustrations
implant
imply
integrate
invaded
ising
justi@@
lean@@
library/@@
liter@@
lowered
mail@@
mentality
municipal
nic@@
nning
obj@@
oily
olive
omi@@
optimi@@
outer
ove
over-@@
oxide
pads
pens
pled
prediction
prospect
prosperous
rainning
ras
safest
scooter
scru@@
seventeen
shou@@
slices
sour@@
stimulus
strained
strings
stroll
tak@@
teached
telephones
ully
vest
vocalist
wildlife
yon@@
.gov@@
43@@
Aomori
BA
Donald
E.@@
Eff@@
Eric
Europeans
Fish
Fortun@@
GP
Got
Hum@@
ITY
MON@@
McDonalds
Medishield
Overview
PhD
Prison
Ram@@
S.@@
Set@@
Sing@@
Together
WR@@
Watashi
Wi
XXX
agents
alternate
ancestor
attendants
ball@@
benefited
blown
boats
bott@@
bre@@
breed
brushed
bulbs
castles
chang
chased
cious
clearer
comedians
confessed
curr@@
curse
drag
drawings
electr@@
essentially
eted
exceptions
experi@@
feel@@
flooded
gin
grace
hats
have@@
highlight
hypo@@
ignorance
improvi@@
inary
indirect
insur@@
interrupted
ized
kyoto
layout
liability
maj@@
mango
maps
menus
nov@@
okonomiyaki
perceive
permitted
policemen
pp.@@
prefers
quest
rear
recentry
renewal
ri
rounded
s.
scape
seri@@
sers
sman
soundtrack
spice
structural
sured
sures
tanks
tax@@
tering
thorough
thougt
tiles
tram
upside
usages
venue
vic@@
what@@
workshops
yang
'S
//nuclear@@
//www.c@@
140
1960s
1992
20s
53@@
5km
700@@
AY@@
After@@
Ama@@
Award
Bureau
Conversely
Cooking
Cross
Dinner
F1
Factors
Force
GCFR
GPA
Guess
Hill
How@@
Jeju
Jose
Learn
Long@@
Macbook
Maj@@
Manhattan
Mun@@
Proc@@
Publications/@@
Questions
Shira@@
Specially
Specifically
TE
TH
Tanzania
UG@@
Ultimately
Waiting
accordingly
adequately
ae
aiming
alists
ander
arcade
ash
bashi
befor
begin@@
belongings
booth
buckwheat
caus@@
chim@@
circles
communicated
conv@@
delays
diamonds
directors
dissatisfaction
dreadful
drin@@
e_@@
econom@@
ester@@
explored
exter@@
fabric
favor@@
fer
fron@@
fts
guilt
heels
ia@@
idle
inability
inger
interrupt
kim@@
knock
leather
legally
lem@@
logo
mangas
manuscript
mixing
navigation
negotiate
noticing
obtaining
oni
pedestrians
reckon
remarks
seemingly
sharply
shiki
shir@@
slice
smoked
sof@@
sor
stab@@
stive
stry
supplement
tempor@@
tment
toes
udi
valley
w.@@
whales
www
xes
.com/
02
2013
2052
Afghanistan
BB@@
BC
CL@@
Destiny
Feel
Film
Goodbye
Hanoi
Imperial
Innovations
Johnny
Kawasaki
Lor@@
Lotte
Major
Mostly
NC@@
Rally
Robotic
SA@@
Scientific
Smoking
Soci@@
Sweet
Talk
Traveling
Vo@@
aa@@
ace
adi@@
aging@@
al_@@
ala
angels
arrest
atic
becase
bleeding
blessing
bonding
by-@@
centigrade
channeled
clicked
comprehend
critici@@
digest
eBay
earrings
eed
eller
embedded
enclosed
environment@@
executed
expresses
foreig@@
fort@@
frightening
ghter
gul@@
hanged
housewives
ima
immature
immense
inging
inspiring
intersted
lang@@
ledge
lessly
lism
messed
metropolitan
mic@@
misunderstandings
mosquitoes
notebooks
ny@@
offended
offensive
ola
ound@@
outfits
planner
promotes
prototypes
pupil
racial
randomly
reccom@@
remark
repository
requiring
reveals
rey
rhyth@@
robotics
salsa
sausages
seoul
sle@@
slow@@
sooooo
sought
soybean
stamp
stmas
stru@@
suburbs
suc@@
sul@@
supportive
temptation
trea@@
ular
unk@@
usa
void
week@@
zaki
1,@@
2005@@
57
58@@
63
79@@
7pm
Ag@@
Bat@@
Between
Bruce
Dan
Dictionary
Dublin
EE@@
Ethical
Ev@@
Exchange
Georgetown
Harajuku
IP
Ibaraki
Introducing
Is@@
Lin
Local
Magic
Mainly
Matt
POR@@
Pan@@
Picture
Play
Researchers
SD
Supercritical-Water-Cooled
Yak@@
addressing
ake
allevi@@
alo@@
avocado
beauti@@
biased
birthrate
blackouts
blows
bol@@
breakthroughs
cardboard
confronted
contamination
convincing
coping
cs@@
depleted
derived
distribu@@
doi
download@@
drummer
dump
ect@@
eland
fuck
gers
gli@@
gram@@
greeted
hampering
hav
hmm
holic
homemade
illustrates
infinite
inherit
intensity
inting
iv@@
judgment
jungle
kilometres
kisses
l/@@
life-@@
listen@@
loop
mailing
membership
milli@@
mly
mma@@
nation@@
neighbours
nouns
oku
organi@@
ot@@
persist
poet
power/@@
prot@@
protagonist
rabbits
ramps
reas@@
reconsider
representatives
restore
restored
rewards
rish
scripts
seminars
servers
shave
sig@@
smallest
souls
speech@@
stop@@
straw
systematic
taxis
thir@@
tougher
towers
ugh@@
uncertainty
uncountable
unwanted
vaccination
view/@@
vings
30000
58
Authority
Bang
Bioethics
Boo@@
Cathedral
D.@@
Federal
Fil@@
Gam@@
Grade
Gradually
Hatoyama
Hom@@
Industrial
JR
Jenny
Kyusyu
Lane
Lanka
Lift
Listen
Mia
Mis@@
Off@@
Pakistan
Peru
Steven
Survey
Susan
TEN@@
Terr@@
Traffic
Van
WHAT
West@@
YA
ago@@
airports
alumni
appointments
apt
aroud
backstage
blond
bonds
bow@@
bra
british
bucket
buyer
candle
casually
centimeters
cher@@
chewing
clas@@
co-@@
collar
confront
crystal
dai
demo@@
depart
diffusion
dos
eh
electromagnetic
ested
evacuation
expanded
feasibility
finger@@
fol@@
foun@@
genetics
gov@@
harmonious
harvested
helmet
holes
horizon
impli@@
ker@@
kon
langage
leg@@
lowering
manufacturer
maple
mol@@
ness@@
newcomer
news.com/@@
ped@@
pissed
progra@@
progression
radio@@
receives
respondents
rested
screen@@
sentimental
slave
slope
slowing
snowman
sory
subtle
sufficiently
supplied
syndrome
tam@@
tants
targeted
teenth
tha@@
tial
tized
uncommon
unfortun@@
ured
virtually
wel@@
yukata
10km
89
AVATAR
Annual
Au
Buongiorno
Cas@@
Cop@@
Cur@@
Dan@@
Discrimination
Dom@@
Driving
EL
Elizabeth
Eng
Face
Falls
Gas@@
Hiro@@
Kids
Laos
MS@@
Meet
Mike
Pol@@
RA@@
Rom@@
Shinagawa
Tech@@
Tofu
Tracking
Wijaya
Wood
Yama@@
adress
amenities
atmospheric
authentic
b/@@
backyard
banning
behaviours
betrayed
bio
blues
brass
calculation
candies
cart
casting
chopped
clover
coats
compla@@
coolants
copied
crude
cucumbers
cular
curtain
d/@@
debated
dialects
dieting
dificult
dio
drowsy
ecially
ecology
elev@@
elly
enge
enting
event@@
experim@@
ffy
fourteen
fox
freak
gesture
gravity
heights
hr
ichi
inci@@
index.php
iner
itted
izing
karate
ld@@
meditation
mint
modification
mornig
news.@@
o-@@
occupy
ordin@@
outdated
portions
ppy
present@@
privilege
provider
psy@@
qua@@
que@@
rack
recreational
respects
rowing
s.htm
sausage
sawa
scarce
schoo@@
selves
serendipitously
squeeze
stamina
stare
structured
subsequent
taked
tel
tempura
terrific
thumb
transform
transparent
trials
tutors
vendor
vens
xi
yahoo
yakiniku
yl
-up
.org.sg/@@
1945
2hours
78@@
ATA
Aff@@
Age@@
Asians
Buying
Christians
Citizens
Del@@
Doomsday
Either
Exactly
FIN@@
Fuk@@
Ghost
Hangzhou
Hawaiian
IAEA
Immediately
Introduce
Kabuki
Kur@@
Made
Medifund
NI@@
Neither
Norwegian
Off
Ol@@
PA@@
Patrick
Plea@@
Previously
Pusan
Resource
Roger
Sak@@
Same
Singing
Stephen
Surgery
Tony
Top@@
Tourist
True
Universities
Volume
acquisition
agawa
agenda
ame
amp@@
applicable
appriciate
armed
assa@@
automated
awa@@
bia
billions
bloomed
body@@
cheaply
coated
colleage
consulted
continual
copying
decay
disclosed
dish@@
dition
drill
eachother
embrace
envied
eon
erry
exposing
flip
food@@
gle
globa@@
govern@@
gram
hackers
hazards
herbs
highways
immi@@
incl@@
indoors
ior
iz@@
lay@@
leftover
long@@
lunchtime
mandarin
mashita
mit
myth
negotiation
neutrons
organisations
origin@@
ough@@
oyster
ozone
parcel
patents
perc@@
petals
pots
practised
print@@
quarreled
radical
refriger@@
regul@@
relates
respectful
rie
risen
road@@
ruling
segment
shanghai
soo@@
spi@@
studi@@
subjected
suburb
t.@@
temper@@
texture
thing@@
thinner
thread
tow
twisted
uchi
ught
unusually
useing
wardrobe
warmed
yea@@
youths
zoos
110
1950
82
96
Already
Arab
Av@@
BI@@
BR@@
Bar
Brian
Buy
Canadians
Celine
Co
Demography
Domestic
ERS
Edward
FCE
Field
Fran@@
Hemingway
Increasing
Initially
Japanse
Kit@@
Lesson
MORE
Need
Past
Pirates
Preparing
Ren@@
Risk
Scott
Services
Surfing
THERE
Tel@@
Tommorow
Umm
Various
accident@@
adore
aga
allergies
anchor
assi@@
ational
atsu
atten@@
aviation
bang
bed@@
bees
birthdays
cals
camp@@
cancer@@
canned
capsule
chiken
christian
cliff
clumsy
column
compatible
controversies
convinient
coupled
coupon
crow@@
crown
daily@@
dan@@
deff@@
demo
destinations
destructive
diligently
disposed
disturbing
drawer
draws
duction
eligible
elt
enters
federal
files/@@
filter
futsal
hai
help@@
hypothesis
ices
ide@@
ider
incorporated
iro
ised
issu@@
jan@@
laughs
lifelong
lifting
lik@@
m/@@
machinery
mans
matched
moring
motorcycles
nal@@
nant
nee@@
nese
ordering
paints
parlor
paths
peel
performer
perseverance
pitcher
plea@@
pollutants
pong
posters
producers
proficient
quotes
rar@@
refined
resorts
resour@@
robbed
rup@@
s/
sales@@
shaved
sively
slippers
slippery
sp
step@@
stepping
subscribe
symbols
toe
uru
voting
weeds
wind@@
wolf
woo@@
--
10.@@
10pm
9.@@
AIDS
Affairs
Amy
Andre@@
Asada
BIG
Beauty
Below
Bio@@
Calgary
Chapter
Cinderella
Colombia
Cultural
Einstein
Fuel
Goo@@
Gor@@
HAS
Hyogo
IV@@
Interestingly
Kei
Mad@@
Maths
Mondays
Naga@@
Num@@
Oil
Pow@@
Private
Robot
Siberia
Side
Skunk
Store
W.@@
We@@
Work@@
Yest@@
Yoshi@@
Yuki
academ@@
ached
altitude
altogether
ard@@
astonishing
auto
beg
bin@@
blah
blogger
bouquet
breakdown
bullied
bully
cab@@
casualties
common@@
condominium
crawl
cycles
discharged
discomfort
dor
doughnuts
downs
dubbed
ecosystem
eighty
eti@@
farther
fitting
freeze
functionality
gaming
gyoza
hugging
illuminated
illustrated
immoral
iners
innovate
internationally
irritating
juicy
lamps
led@@
livelihood
manag@@
manipu@@
mayonnaise
mount
nia
ological
ownership
packs
poisoning
poll@@
postgraduate
potter
privac@@
prof@@
reflection
rest@@
sei
serendipity
shortest
sighted
simu@@
sneezing
spark@@
ston
stubborn
swollen
tactics
tenth
trailer
transformation
transpor@@
typed
uk
umb@@
way@@
whereabouts
whiskey
wines
(@@
110@@
1970s
1989
2days
600@@
61
ATM
Activities
Ai@@
Arti@@
Asahi
Base
Billy
Boat
Camera
Cebu
Ear@@
Fantasy
Gray
Gross
Hallo
Himeji
Hungarian
Jen@@
Kai@@
LDP
List
MLB
MV
Mont@@
NA
Non
Progress
RP@@
Rest@@
Shenzhen
Sus@@
TS@@
TU@@
Twenty
Wakayama
abe
aboard
abundance
aca@@
accordance
actinides
adviser
agrees
anes@@
aro
bon
busiest
cab
canc@@
capitali@@
cautious
chooses
civilians
cker
collision
committing
companion
complications
conso@@
crafts
cures
curing
dealer
debut
development/policies
diner
ef
elaborate
etc.
eving
excer@@
fatty
filed
frogs
fuel@@
glue
good@@
graceful
happenings
hospitality
hr@@
iPad2
impulse
initi@@
insp@@
interactive
investigating
io
jackets
kidney
kissing
kyu
lining
mar
measurement
memo
merchandise
morally
neglecting
norm
offs
one-@@
online@@
ook
origami
outcomes
outfit
outing
pandas
path@@
pertaining
pine
pineapple
poo@@
prepares
protects
pumped
rable
releases/@@
resul@@
ron@@
rumors
sci
sco
secondhand
shogi
sia
smo@@
spee@@
strategic
suff@@
sunburn
syrup
taro
tism
tom
transportations
transported
traveler
try@@
tsu
ute
veg@@
vendors
vey
vious
weights
wet@@
wiser
workload
wright
xxx
yle
,2007
-year
00PM
198@@
21th
550
86@@
9am
AGE
AKB48
About@@
BY
Child
Climbing
Columbia
Contin@@
ELY
Essay
Grandma
Health@@
Heat
KS
Kaz@@
LTA
Malta
Marine
Metal
Michel
Min
Miso
Motor
Moving
Mum
Over@@
PAR@@
Pac@@
RES@@
Revolution
SAT
Secret
Sta@@
TVs
Tea
Under@@
Vacation
WWII
Walk
Welfare
abused
accused
alco@@
ance@@
appealed
arly
arm@@
awfully
basement
calender
calmed
casts
ceramic
child@@
cies
cil@@
clinics
communi@@
confidently
consistently
creepy
delivering
design@@
dye
eal@@
electri@@
eno@@
ett
evacuated
executives
exploit
feast
flooding
frends
gan
gat@@
gates
geek
had@@
hardships
histor@@
inspected
insu@@
interpersonal
irregular
juku
jum@@
kidnapped
kilogram
kyo
leaved
lizing
long-@@
loy@@
masu
metres
mill@@
needle
observing
onwards
oppo@@
outweighs
phili@@
pies
planets
pollu@@
popul@@
postcards
prepar@@
preschool
progresses
raid
recognised
recruitment
regrettable
rement
renowned
responsi@@
retraining
riverside
room@@
seal
sesame
shcool
shorten
sick@@
sleeve
sleeves
slump
spinning
sprouts
spy
sticking
stimulates
stunned
suit@@
tackling
tered
themself
tness
tos
touches
transmit
trauma
ushima
usions
vibration
waved
waving
well@@
wrestler
wrestling
wro@@
yearly
yest@@
é
.j@@
//www.nature.com/scitable/topicpage/Ethics-of-Genetic-Testing-Medical-Insurance-and-651
//www@@
1.html
11/@@
12.@@
1200
180
2006/@@
293-303
2F@@
64@@
7am
86
ANG@@
Actu@@
Althought
Animation
Caribbean
Dickens
Eco
Ed
Emperor
FR@@
Finaly
Fireworks
GI@@
Genetic@@
IE
ITE
Jordan
Joy
Kag@@
Kimchi
Na
Nadeshiko
Ofcourse
PM@@
Pic@@
Present
Retrived
Ryoma
Staying
Sunshine
TEPCO
Ukrainian
Wea@@
Woman
accountant
ack@@
assembly
awoke
bark
bath@@
beard
beau@@
beg@@
blin@@
burns
cam
caution
cen@@
chy
coefficient
colloquial
come@@
conci@@
continu@@
cought
crap
cs/@@
detail@@
domitory
drunken
embassy
enhances
expired
favour@@
favourable
fet@@
fon@@
framework
func@@
gu
hamster
ignorant
illusion
in_@@
indu@@
informative
insignificant
involvement
ists
kai@@
kite
koto
lanes
ligent
listener
loaded
mac@@
ministers
mobil@@
nag@@
nings
of_@@
ople
overwork
passages
pel@@
peple
physician
prescribed
puri@@
question@@
ren
reporting
requ@@
reservations
resignation
revive
rides
scholarships
sequel
sho
shortcomings
simulation
sincer@@
softball
soo
strikes
stuffy
stylist
summar@@
tain@@
teach@@
teller
tex@@
then@@
thor@@
timely
times.com/@@
tomb
toothache
una
urs
vicious
view@@
wang
weak@@
zo@@
//www.a@@
31th
6pm
Accordingly
Aged
Analy@@
Angel
BS
Bhutan
CHANG@@
Fu
Gates
Gene
HDD
HK
HP
Heavy
Inst@@
Islands
Knowledge
Masters
Mickey
Mol@@
NEVER
Nikko
Panda
Patients
Ph@@
Reason
Rober@@
Saga
Saving
Seriously
Shimane
Shop
Sonic
TA@@
THEATRE
TY
Touch
UK@@
Version
Wedding
Xiaonei.com
abo@@
addict
altered
aly@@
angles
astronaut
aya
bearing
bedrooms
beverages
billiards
boast
bridges
casino
celeb@@
cite
coldness
condition@@
consisting
constraint
constructive
converting
corners
countdown
creator
cry@@
cube
dable
daylight
decorating
deprive
deteriorating
differs
dismissed
distracted
districts
durable
edged
elite
elo@@
emergencies
encing
engagement
envi@@
eption
expressway
fade
fainted
fairies
fis@@
fo
frames
friendliness
gan@@
gated
genres
gymnastics
heal@@
iga
ild
iles
inating
influ@@
innovation-development
instinct
integrity
invade
ironic
isa
kilometer
kindergarden
lamb
latte
lavender
leaflets
loans
lou@@
main@@
market@@
mastered
mechanisms
memori@@
minim@@
motor@@
mum@@
oon
orn@@
ov
overlook
ox@@
p-@@
perf@@
programing
publicity
pulling
reap
recruiting
referee
reminder
representing
revolutionary
risk@@
sensi@@
servic@@
shade
shark
shr@@
siness
smu@@
ssy
stimulating
stitution
straigh@@
succ@@
summit
surgeries
tious
tolerate
tops
trendy
triple
turtles
tz
ug@@
undergone
usion
verbal
veri@@
vitality
wac@@
width
yl@@
ysi@@
yuki
.com/articles/@@
1981
2:@@
429@@
84
850
Alan
Area
BROOK
Bil@@
Bl@@
Bonus
Budapest
Cairns
Chiang
Climate
Court
Dir@@
Dogs
Don
Economy
Entrance
Entry
FO@@
FUL
Forsberg
Gas-Cooled
Genome
Gifu
Giving
Gri@@
Higher
Hit@@
Huang
Intro@@
Jennifer
Jin
LAN
LIN@@
Lantern
Left
Less
Mathematics
Nearly
Nokia
Oasis
Ohana
Oops
Oregon
Pas@@
Passive
Primary
Prize
Proficiency
Prot@@
Ross
Run
SM@@
SW@@
Shiga
Strong
Subsequently
TAK@@
Taro
Tigers
Title
Totoro
Transportation
Tv
Visiting
Watch
Yor@@
acks
add@@
adv@@
aftershock
alley
analy@@
annoys
appearing
assisted
barrier-free
begging
bom@@
bookshop
boot
bricks
btw
cane
capit@@
cathedral
chal@@
chen
chick
coinc@@
collaboration
connects
courts
cracked
curtains
decisive
depended
deteriorate
determining
dispo@@
dispose
dragged
drawback
dynasty
eco-car
emen
endurance
ener
etely
exi@@
fee@@
fish@@
functioning
gene@@
glow
hatred
homeroom
horizons
idea@@
imagining
implants
intake
inter
iso@@
itali@@
judging
kingdom
koshi
lace
laz@@
leap
manufactured
mean@@
mechanics
ment-@@
miniature
mortality
mysteries
neg@@
negligence
nes@@
nuance
opin@@
ops
otaku
outs
parson
peaches
pencils
penguin
peppers
pes@@
predictable
pressuri@@
priceless
pronoun@@
proteins
purely
quotation
racy
rd
recei@@
regretful
rfid_@@
s-and-@@
screens
sensors
servants
shin
shortened
sies
snea@@
solu@@
spacious
speciali@@
striking
superiors
swea@@
sympathize
tage
technologi@@
tion-@@
trainee
uded
unacceptable
und
urine
uta
ux
veranda
vor@@
wax
AFTER
AMA
AWA
Along
Analysis
Applied
Arabian
B.@@
BF
Beca@@
Britney
Brother
Busy
Century
Conven@@
Engilsh
Ever@@
FIRST
Forest
Gla@@
Goya
Hana
Indians
Iron
Izu
Kanellos
Koshien
LL@@
Lam@@
Mur@@
Newater
Niagara
Nishi@@
Number
Page
Planning
Professional
Quest
Quite
Rapid
Revisited
Sec@@
Shu
Sichuan
Sodium
South@@
Step@@
Symphony
TOR@@
Tax
Thought
Tit@@
Univer@@
Upon
Very-@@
WAY
Workers
a.@@
absurd
achi@@
acknowledged
advises
alter
anim@@
antibiotic
appear@@
aria
ast
august
bic@@
bir@@
bites
black@@
bookkeeping
booming
borne
boundaries
burgers
captions
caster
chard
coaches
commodities
completing
cottage
counselor
countable
crop
dest
devi@@
diagno@@
discri@@
dislikes
dom
dvd
earnest
eases
editing
eful
eigh@@
enforce
enic
entary
extending
fas@@
firend
galleries
ggling
hampered
handi@@
harbor
havent
hips
hob@@
homeland
horn
humour
icy
imag@@
imi
immersed
impl@@
impress
improper
index
infant
infections
interactions
jack
kou@@
last@@
logists
mend
multi-@@
neatly
nick@@
ninety
nodded
nowdays
oms
ord
overly
par
past@@
performers
pig@@
population@@
prestigious
pup@@
recognizing
reconstruction
regain
regreted
regulated
replying
ressed
rics
riot
rities
saxophone
scan
scenic
search@@
seated
seventy
shells
shoping
signature
silk
skinny
soaring
specialize
sporting
stall
suspense
swallow
symphony
tagging
texted
tible
til@@
ump
ung@@
ushi@@
vampires
van@@
ve-@@
vegitables
vert
video@@
viewer
viol@@
webcam
weighed
wirte
.edu/
//inlportal.inl.gov/portal/server.pt
//www.rfid@@
/r@@
11pm
13/@@
1hour
30s
3years
514&objID
59
68
71
79
83
88@@
Afternoon
Amer@@
Arsenal
Assi@@
Bernhard
Beyond
Brad
Carbon
Carri@@
Cáceres
DIY
District
Dubai
Electricity
Elena
Enoshima
Fine
GINA
Grant
Gyoza
Happ@@
Honey
Honolulu
Joh@@
Jump
KH@@
Lead
Lewan
Macdonald
Main@@
Mario
Mass
Miyajima
OC
PRE@@
Play@@
Point
Pom@@
Rem@@
Sales
Scottish
Shall
Sodium-cooled
Sophie
Source
Southern
Spo@@
TECHNOLOGY
THINK
TUR@@
TV@@
Tai
World@@
YU
YUK@@
Zh@@
adapting
aer@@
affiliated
breach
broad@@
brutal
buddy
bumped
calculated
call@@
caramel
catches
charac@@
chew
chop@@
collegues
compo@@
compu@@
contracting
converse
cooperative
cord
cos
dar
determines
diamond
documents/@@
doll@@
donations
door@@
doubled
eces
enought
eo@@
equality
erial
espresso
establishment
eved
explosions
faint
famil@@
fatter
faulty
favorit
fellows
frequ@@
gospel
gradu@@
graph@@
gt
hama
headaches
helium-cooled
ht@@
ides
ig
ila
imo
impe@@
impro@@
info/@@
innov@@
investigated
katakana
kidnapping
kitchens
kura
lastly
leaned
learing
lettuce
machi
machinists
mathematical
may@@
medic@@
medications
mee@@
mili@@
moive
nano@@
obe@@
oid
olympic
ounding
oversleep
paperback
penguins
persuaded
phone@@
pipes
pref@@
prise
productions
prolonged
pts
racket
reactivity
rer@@
rs
sacrificed
sama
sandals
scissors
sco@@
se/@@
season@@
sensitivity
sever@@
shan
shortages
shu
shutdown
skates
sno@@
som
specified
spon@@
sponsor
spray
ssing
stam@@
storing
suppl@@
surveys
taboo
technician
technology/@@
thed
this@@
thoughtful
tolerant
transition
transports
trap
trys
tten
tton
tubes
ultra
unrealistic
verted
vividly
whispered
winners
yeas
zushi
é@@
-term
.9
.cn/@@
23th
42@@
9pm
Accessibility
Antonio
Bath
By@@
Card
Clean
Coke
DE
Develop@@
Diana
Down
Dreams
Email
Fore@@
Guide
HA
Hawk-eye
Him
Holy
Hop@@
I'M
IE@@
Iam
Increa@@
Ivan
Jac@@
LAST
LED
Lan@@
Lat@@
Liverpool
MAN
Marketing
Med@@
Montreal
NOW
Nana
Nar@@
Nippon
ONLY
OS@@
Osechi
PV
Phil@@
Philadelphia
RED
Ramadan
Reli@@
Sherlock
Sig@@
Stadium
Stat@@
Sud@@
Suppose
TRY
Tanabata
Technological
Ted
Terminator
Trying
Type
VS
Watson
Zero
accepts
accomplishment
aggrav@@
android
aning
attachment
avi@@
backwards
bady
bag@@
batting
beggining
bid
bud
camer@@
coding
coloured
conditional
contin@@
cuisines
curb
damaging
denti@@
depicts
diffcult
dire
disa@@
display@@
dock
dominated
dough
dual
elbow
english@@
enjoy@@
entially
equip
eses
esta
examiner
filming
firends
foot@@
frineds
grams
gth
handwriting
his/her
holders
hoo
hopeless
hurricane
idently
imports
ince
inheriting
innova@@
insert
investigations
iton
kimonos
knowledges
lifted
lisation
liters
matching
minites
misses
mt
murders
nano
national@@
nel
odi@@
offset
oper@@
penet@@
perm
php
phrasal
poles
polished
pple
pragmatic
preview
program@@
prohibit
protest
punch
receipt
recreation
remeber
remo@@
repairs
replies
reporters
research@@
respecting
rfid@@
rian
rom
secu@@
shino
shrimps
sional
slogan
softwares
spinach
stating
strokes
supervision
surge
surger@@
surprises
swim@@
t.
terday
terri@@
tertiary
thogh
tionally
toothbrush
transmission
uploading
valu@@
vanilla
vicinity
vir@@
vo
well-known
worms
worthless
yelling
.Retrieved
//www.b@@
/index@@
150@@
2004@@
20090@@
20Engineering-
20Engineering.pdf
50000
95@@
AB
Apr
Aside
Att@@
Ay@@
BEST
Bus
CET6
COR@@
Cameron
Championship
Christ@@
Cli@@
Detective
Devil
Diet
Dr@@
Dun@@
Employers
Everywhere
FBI
Funds
GET
H.@@
HD
Hunter
Islam
Istanbul
Joey
Juan
Kanazawa
Kri@@
L.@@
Leonardo
MT
Memorial
Nak@@
OP@@
Owing
Parkinson
Photo
Plan@@
Publi@@
Publishing
R.@@
RFID@@
Rev@@
Riding
Rights
Rio
Staff
Than
Transformers
U.S.A
UFO
UT@@
Unit
VI
Virtual
WW@@
XX
aba
ac
advisor
aku@@
ament
apologise
associates
ato
bases
bitch
bore
breathtaking
capitalism
catering
charactor
cic@@
citation
ckly
collections
compliment
composer
conscience
contaminated
convinience
craft@@
creams
crushed
dedicate
defect
deficiency
departed
discriminate
docs/@@
du
ech
eco-friendly
eels
ego
emailed
emerge
empathy
enriched
equi@@
esome
especi@@
estimation
fanta@@
fires
fumes
gal
gin@@
glish
grap@@
graphite-moderated
greying
guessing
gymnasium
harassment
hat@@
haunted
hav@@
hen
hl
hospitalization
hy
illumination
incomplete
individu@@
indulge
iner@@
insists
interpreted
ipad
irresponsible
jin@@
lisence
lization
mass@@
masterpieces
micro
misery
ml
mouths
mutated
nick
ning@@
pastry
payout
pleasing
plug
prolifer@@
pulse
pus
quali@@
refugees
respectable
ression
seas
seasoned
sellers
shipped
shoo@@
sincerity
sins
slot
snail
soaking
sociology
speciality
stati@@
statistic
suggesting
summers
suspicion
swiming
sydney
sym@@
tating
terror
thank@@
think@@
towels
treasures
tum
underlying
undertake
usualy
utilizing
vacant
vanished
viewpoints
vit@@
voted
water-cooled
yness
í@@
-in-@@
-of-@@
1960
2000@@
30minutes
69
72
97
Adults
Aki@@
Ale@@
Amsterdam
Animal
Appro@@
BBS
BCA
Bieber
Biology
Burger
CPU
Cell
Conf@@
Desperate
Doc@@
Dri@@
Earlier
Expenditure
Fili@@
Fol@@
Fool
Funny
Geo@@
Haiti
High-@@
Individuals
Juliet
Kawa@@
Keio
Kra@@
Lavigne
Letter
Limiting
Lincoln
Marina
Mart
Mea@@
Mount
Notebook
Okinawan
Photo@@
Psycho@@
Quar@@
RFID-@@
RPG
Ring
Roo@@
SOME
SON@@
SONY
Santiago
Sep@@
Sor@@
Stu@@
Sw@@
TAKE
Than@@
Tre@@
Understanding
Uni
WA@@
WANT
Whoever
Yap
alongside
appl@@
arranging
atomosphere
atta@@
attempted
baby@@
bells
bf
borders
broadcasts
bucks
bull
ce-@@
certificates
chats
chon
cler@@
cock
cognitive
competence
consensus
cooled@@
corridor
cushion
dense
dialog
dict
discipl@@
dishwasher
dles
dra
drying
e.g.
ello
emony
ender
enty
ert
esting
euro
excessively
expects
exquisite
farms
fiber
fing
flawed
fluid
fuckin
fundament@@
geographical
gical
grate
hasn't
health-@@
hindered
hosts
hrs
iMac
iding
ignoring
inequality
insight
integration
interacting
intersection
isolation
japan@@
jects
jumps
knowledgeable
lantern
leftovers
mam
mang@@
mansion
mattress
maxim@@
mentions
millionaire
missions
mitting
nearer
noble
onset
opia
ord@@
owed
pap@@
passports
patient@@
pear
percussion
pha@@
pon
populated
portal
poten@@
prospective
provi@@
punctual
quarters
railroad
raincoat
recommends
regime
reinforce
rements
render
reserch
rigorous
rink
ris@@
rotation
rum
sause
sd@@
self@@
sew
simplest
skater
slaves
sneeze
southeast
speeding
spla@@
sprout
sses
standardi@@
street@@
struc@@
suffer@@
sunglasses
surround
switching
tability
tless
torn
translators
trucks
ty-@@
ugh
ukulele
unsuccessful
varies
vering
vi
vowel
wed@@
weed
wired
xed
-8@@
.eu@@
.go@@
.in@@
.org.uk/@@
//www.channelnewsasia.com/stories/singaporelocalnews/view/@@
//www.iisme.org/etp/HS
//www.moh.gov.sg/mohcorp/hcfinancing.aspx
//www.singstat.gov.sg/stats/@@
2016
5pm
74
ASH@@
AZ@@
Absolutely
Af@@
Ala@@
Ali@@
BL@@
Bab@@
Basic
Bla@@
Boss
Cameroon
Chinatown
Cir@@
Content@@
Copenhagen
Cuba
DANNY
DIS@@
Definitely
Developing
Dra@@
Eat
Eye
Fl@@
Florence
GRE
HC@@
Head
Hu
JAL
Joseph
Kuro@@
LANG
Magazine
Mall
Mehlman
Model
Monster
NTT
None
OH
ONS
OUND
Personal
Physi@@
Podcast
Princi@@
Rob@@
SA
Sciences
Shou@@
Simply
Skills
Some@@
Strange
Sunny
TOYOTA
Tata
Tem@@
Tochigi
Toyo@@
Visa
WORLD
Wh
abor@@
absor@@
afri@@
ain
anga
animes
apar@@
archive@@
bei
beijing
bend
bie
blogging
brick
broadband
bungee
c.@@
cattle
celebrations
centered
check@@
cheerfully
cian
cinemas
class@@
conduc@@
conser@@
copyright
corro@@
cosy
counsel@@
cutlet
dam
denying
determin@@
determinist
dia@@
difficul@@
dirt
disgusted
dissi@@
doctoral
documentaries
dol@@
downloading
dro
emits
emo@@
emon
endeavor
enhancement
entrepreneurs
erased
escalator
esti@@
ew@@
exhibited
expla@@
f/@@
fares
farmland
feathers
fighters
fills
folded
forbid
formally
funniest
futures
gasoline-powered
gent@@
gestures
gies
guiding
halloween
hanami
hassle
hee
hesitant
him@@
ica@@
icking
illegally
impaired
implanting
ingu@@
instruc@@
intrusion
isn
iter@@
kawa@@
kie
kit
kittens
landing
lik
litte
liv@@
magnetic
mama
margin
menber
miners
missi@@
modernization
monk
morality
motivating
motive
mutton
nals
needing
nin@@
nn@@
noticeable
notification
nucle@@
occupations
omg
ope
opo@@
parent@@
pass@@
pleasures
polices
porn
posing
pressured
prolong
pron@@
psychologically
pt@@
pyramid
questionable
rainfall
rations
realization
recital
relies
repl@@
respiratory
rigid
roa@@
router
routines
ruled
s,@@
schooling
scienti@@
sequ@@
sharks
shment
skaters
skyscrapers
smen
soli@@
spain
spiders
spreads
stead
stimulated
subordinates
superstition
suprise
surveillance@@
swept
tapes
tee@@
terrace
theses
tiresome
trac@@
triggered
turbines
unpopular
ure@@
vac@@
whisky
wir@@
zations
á@@
ó@@
10days
112@@
AV
Ak@@
Anpanman
Ash@@
Big@@
Burton
Cab@@
Chrome
DA@@
Damn
Detroit
Elder
Euro
Families
Francis
Fresh
Hell
Holidays
Important
Inc.
Inter
Ive
JPY
Jerry
Karen
Katakana
Lab
Leo
MB
MC@@
MI@@
Military
Motors
Multi@@
Ninja
OTHER
Opposing
Price
Qing
Relations
Softbank
St.
Standard
Stanley
Tech
Voice
WH@@
Woods
Yo
activi@@
alistic
americ@@
authori@@
avatar
bad@@
bai
band@@
beacause
bid@@
bour@@
broader
cep@@
cheers
clam
coaching
comb@@
commerci@@
comprises
correspon@@
crackers
darker
deed
deterioration
dic
donuts
dug
dys@@
eck
entrepreneurship
eres
exceptional
eyelids
fearful
featuring
fertile
fertilizer
finaly
ggle
gic
graphy
half@@
healed
helper
hospit@@
households
huh
humili@@
idence
imformation
imit@@
impede
imperative
importing
inher@@
innovators
instability
intentionally
iru
iser
joy@@
kendo
liar
ling@@
lize
longevity
lungs
make@@
malfunction
marriages
mart
matics
matured
medias
migrate
moderni@@
modifications
mour@@
mur@@
nets
northeast
notices
notify
num@@
nurturing
pac@@
paced
panicked
particul@@
passions
pediat@@
pel
peninsula
perfection
periodically
persp@@
pirate
pirates
pizzas
popped
prea@@
privileged
proudly
pumps
quantities
recep@@
recyclable
rious
satisfies
sculptures
sday
separ@@
shel@@
shinkansen
sian
sible
simplicity
singular
situ@@
skies
sleeved
specula@@
starred
storyline
stunning
subscri@@
substantially
suspects
tac@@
taht
theatres
their@@
therapist
thig
tigers
til
times@@
timid
translates
typically
unaware
unite
uu@@
vacancy
valentine
vent
venues
vic
vid
vine
webpage
wonderland
wonders
y.com/@@
.5
.com.cn/@@
.edu@@
.sg
/0,@@
07/@@
1.htm
13&mode
15000
158
2007/@@
2008/@@
20080@@
2009.
240
3.html
3GS
450
4days
5days
6000
750
92
98@@
Adding
All@@
Ame@@
Ancient
Asi@@
Back@@
Bre@@
Bush
Captain
Costa
Costco
DON
Dallas
Eli@@
FF
Find
Fir@@
Fuji@@
GM@@
Gil@@
Grey
HL
HS
Happiness
Holmes
I'@@
Ill@@
MUS@@
Macau
Marie
Mariners
Mcdonald
Mine
Mochi
Mouse
Must
NR@@
NRC
Nowdays
One@@
Political
Pra@@
Proponents
Room
Safari
Sar@@
Sev@@
Seyyed
Simple
Simpsons
Stories
Sue
Swift
TOO
TU
Table
Tottori
UDON
VHT@@
VIP
Var@@
Weekend
Went
Whi@@
Word@@
Yuan
_id
a.com/@@
aching
acoustic
ades
advocate
aesthetic
affir@@
al.
allocating
ally@@
analysing
analytical
ango
annu@@
anti-aging
autograph
bent
bes@@
bias
bok
bord
broiled
caption
catched
champagne
changeable
chees@@
chemist
chubby
cive
classics
colle@@
collo@@
comforted
composing
conferences
considers
consu@@
contacting
contam@@
convic@@
crabs
curi@@
d.@@
deforestation
del
deri@@
desalination
dial
diesel
dip
doc
document@@
ducks
eafter
eau
eds
effici@@
encounters
euros
excel
faded
fea@@
fig@@
forgets
forums
frigh@@
full/@@
guts
habit@@
health/@@
high-temperature
honorific
hosp@@
incul@@
injections
interference
iny
ion@@
landlady
lap@@
lates
lator
lease
linguistic
literary
lob@@
locker
lowing
ly-@@
mas@@
mercy
meth@@
migration
n.@@
need@@
newborn
nightmares
oe
oming
ont
opt
orium
ort@@
overcrowded
packaging
pei
picks
ply
popcorn
possession
predic@@
pref
prevent@@
promptly
prosper
proverbs
provo@@
public@@
ranks
redi@@
regretting
restraunt
ripe
roe
rotten
satis@@
scal@@
scen@@
secondly
shifted
shyness
sounding
speach
specification
stain
stereotypes
stretched
stuff@@
sustaining
techno@@
ted@@
unconscious
underwent
uro@@
ury
utili@@
vaccines
val
variations
vas@@
vase
volley
wandered
widen
won@@
yell
yers
yton
-related
.com/2009/0@@
100000
1year
22th
5years
97@@
ACT
ASHI
Adv@@
Albert
BACK
Brazilians
Bron@@
DN'T
Disaster
Edinburgh
Favorite
Foreigners
Fox
Fridays
Fur@@
GH@@
Haiku
Hallows
Housewives
ICAL
Iceland
Italians
JLPT
Julia
KU
Kan
Keigo
Kevin
Kid@@
LL
Lessons
Lim@@
MANGA
MI
MIS@@
MR
Ma
Minh
Mozart
Muslim
NEWS
Nov@@
Oden
Organiser
Origami
Oscar
Phoenix
Protection
Province
Ps
Result
Roc@@
Sister
Soup
Sources
Stati@@
TSU@@
Topic
Tro@@
USSR
Ugly
Univ
Up@@
VER
Wait
Wave
Xi
Yamaguchi
abdominal
accelerate
addictive
adm@@
aggressively
aided
alarming
ambi@@
appli@@
aroused
asa
auth@@
barking
beetle
bor
brightly
buffer
buzzing
chamber
champions
chernoby@@
clothe
clues
cockroaches
comparative
confined
connec@@
cops
cracking
cup@@
cut@@
debris
deg@@
dence
depl@@
din
ding@@
dition@@
domain
dots
duced
echo@@
effec@@
especialy
exclusively
exposition
extra@@
eye@@
facili@@
feather
fluoride
freaking
god@@
grasses
grum@@
hage
hairs
headmaster
highlights
hinders
hints
hs
hub
impo@@
indian
inese
instrumental
inted
integral
inventory
jobless
keywords
kun
leaks
lor@@
maturity
mentioning
mind@@
mines
mist
moist
monopoly
moto@@
needles
nology
occupational
odds
ofcourse
oku@@
olds
onary
ono@@
optimal
oriental
overview
pause
peace@@
phi@@
pillars
portfolio
pow@@
preci@@
premiums
prey
problematic
professionally
publication
pursued
renovated
resembles
resist@@
revision
ria
rushing
sati@@
scar
scoo@@
seize
shallow
shments
singles
skipping
slender
societ@@
stamps
stical
stitutes
strap
subsidi@@
supplying
swore
tails
taly
throught
tified
tioning
trainings
transmitted
triangle
ts@@
uka
ula
upload@@
uss
utiful
virtue
waits
wii
would@@
zones
&source
.com.sg/@@
//www.mom.gov.sg/publish/momportal/en/@@
//www.o@@
10-@@
10.1038/@@
160@@
20PM@@
30AM
78
Account
Add
Answer
Beginning
Body
Brain
Bry@@
Btw
CO
CONCERT
Cancer@@
Chongqing
Cogeneration
Concert
Course
Deathly
Declan
Depp
Division
ENTS
Enter@@
Every@@
Ex
Example
Experience
Finnish
Firefox
Fo@@
Ford
Giant
Gion
Gogh
HAPPY
Haw@@
Integrated
Islamic
Jogging
Judo
Julie
Kami@@
Kno@@
Lead-cooled
Len@@
Leon
Lev@@
Mach@@
Massachusetts
Matsu@@
Mehta
Messi
Mind
Myanmar
NET
Newspaper
Nikkei
Normal
Odawara
Painting
Percy
Provi@@
Sai@@
Shinjyuku
Shop@@
Shuttle
Simon
Spa
Step
Swine
Tainan
Tango
UM
Uh
Vista
Visual
WW2
Wimbledon
_reactor@@
_reactor_@@
abili@@
adversely
aftermath
amazon
anatomy
anding
april
arily
asia@@
assumption
athletics
attendees
australia
bank@@
beautician
bic
biscuits
brigh@@
brochure
bubbles
carriage
chefs
clicking
closure
colds
communicative
creations
danger@@
dian
discarded
double-@@
dryer
dumped
ectors
edly
eger
elem@@
element@@
eliminating
elle
elsewhere
epicenter
equation
eri@@
es.com/@@
exploration
fier
flav@@
float
fr.htm
gee
genetic_@@
ghts
governor
gp@@
habitats
hacker
headphones
hil@@
histories
ilo@@
indifferent
inertia
infants
inhi@@
interrup@@
ions
irrelevant
juniors
kable
l.gov/@@
lau@@
liberal
lif@@
listeners
logistics
lunches
maki
manages
mex@@
migra@@
mobiles
monitors
monks
monument
motivates
nament
nas@@
next@@
now@@
obser@@
ools
oranges
organisms
p.org/@@
pages/@@
parallel
pdf
pearl
pers
persistent
pian
pierced
populari@@
prac@@
prisoners
probable
psychology@@
pud@@
py@@
ques
rafting
reti@@
richest
right@@
rin@@
ris
robo@@
roofs
sacred
sad@@
sam
sarcastic
shadowing
sparked
speak@@
special@@
spotted
standpoint
start@@
stein
stered
stries
stro
susp@@
tai
tatami
telecommunication
throws
tide
treatable
tus
tutoring
tweets
unrelated
urged
urgently
wellness
worring
worsening
zh@@
'(@@
1800
2500
Akira
Akita
Alps
Anything
App
Beethoven
Bell
Bento
Canon
Carol
Cats
Census
Cent@@
Clar@@
Cleaning
Clinton
Construction
Core
Daddy
Degree
Down@@
Dynasty
Encyclopedia
Eri@@
Exercise
Experim@@
Fair
GE
GN@@
Geographic
Goku
Graduate
Hag@@
Hama@@
IES
IX
Interesting
Ita@@
JP
KING
Kagawa
Kendo
Kun@@
Liberal
Liberty
Life@@
Lim
MOM
Machine
Macintosh
Madonna
Metro
NT
Nin@@
Occasionally
Pearl
Piano
Prevention
Re
Regulatory
Resear@@
Robin
Ruby
SEC@@
SHIN@@
Saf@@
Sean
Shan@@
Sleeping
Son@@
Soul
Stay
Swan
Taiyaki
Techno@@
Tour
Wol@@
Writ@@
accoun@@
adjusting
administrator
advert
aerobic
aes@@
airlines
ample
anesthesia
anic
appearances
arch
archery
ares
atures
bazaar
bies
bili@@
biz
blast
block@@
boarded
bottled
bouldering
bowel
budget@@
buri
buyers
carelessly
casted
cau@@
chains
chairman
childrens
cht
circus
clubbing
coal@@
colo@@
compar@@
compound
congratu@@
congress
conserve
conve@@
correspond
cultivating
decayed
deepest
descri@@
deserved
devils
dissertation
doo@@
dozen
dozens
droped
eded
elty
ema
embr@@
emig@@
enqu@@
environmentally-friendly
exert
extensively
familial
fax
fisherman
flame
flea
forgave
fork
harms
hon
hook
horri@@
ich
identally
illa@@
impairment
inan
inspires
interes@@
ironically
jer@@
job@@
kindergar@@
kom@@
kor@@
kung
kyou
lanterns
leaflet
learnd
lement
listic
loca@@
lum
marrige
master@@
math@@
moo@@
morals
near@@
nerv@@
non-renewable
obese
obsolete
october
ose
paci@@
papers/@@
parted
payments
peer
persi@@
pickles
pleasantly
preferable
prep
problem@@
proponents
publisher
rap@@
rape
reasoning
recomm@@
ret@@
rider
rier
riots
say@@
scandal
se-@@
semi@@
seriousness
shifts
shire
six@@
skin@@
skunkwork
sma@@
socialize
speeds
starvation
successive
suki
suppress
system@@
tar
tari@@
taxation
tempered
ternity
thailand
thorium
tournaments
uko
viet@@
wastage
wating
wha@@
workbook
zzy
.2
.about.com/od/@@
.gov/
//news.cnet.com/@@
//nuclear.inl.gov/gen4/@@
//www.nature.com.libproxy1.nus.edu.sg/@@
//www.ne.doe.gov/@@
//www.pub@@
//www.straitstimes.com/Breaking
/06/@@
/index.html
1.0
130
1Q84
1pm
230
3.htm
300000
3hours
46@@
52@@
85@@
8pm
?@@
Action
Andrea
Any@@
Aso
BFA
Black@@
Brothers
Brussels
C-@@
Cel@@
Certificate
Charlotte
Chernoby@@
Common
Cut
DEAR
Doctors
Eldershield
Engl@@
FP
Feb@@
Fight
Frequently
Fried
Hakata
Hand@@
Hap@@
Heartmate
Hok@@
Home@@
Hoo@@
IDE
Ironically
Jacob
Jul@@
KA
KLM
Ki
Kimura
Kir@@
Lang@@
Libya
Lucy
MANY
MOH
Mai
Mir@@
Mongolia
Myspace
NFL
NT@@
Naoto
Nondiscrimination
Nuclear-@@
O-@@
Ow@@
PIC@@
Pink
Pon@@
Pretty
Rabbit
Roma
Romeo
SEN@@
SIN@@
SN@@
Science@@
Seniors
Shir@@
Silicon
Stars
Ster@@
Sting
Supercritical-Water-cooled
Supercritical-water-cooled
TOR
Taichung
Take@@
Tea@@
Teenagers
Text
Tran@@
Tun@@
Ul@@
VO@@
Very-high-temperature
WERE
WN
Xbox
Xiao
acceler@@
accounted
aded
alu@@
analog
angers
angs
anian
announcer
arrow
artworks
autographs
autonomy
ax@@
bages
bara
biometric
boar@@
brain@@
bree@@
breeding
buff@@
buy@@
ca/@@
caffeine
cal_@@
carbon@@
cc
charts
childbirth
ciation
cicada
cigar@@
coconut
collap@@
coloni@@
combining
commands
compelling
complement
configuration
conservation
contracts
coordinate
cosplay
crum@@
daddy
dal@@
data@@
defini@@
deployed
dial@@
disappearing
disappears
disea@@
dome
doorbell
dun@@
eated
economic@@
ection@@
ecu@@
eet
effected
efs
elli
ems
enabling
ench
enko
enta@@
eternal
ethic@@
euthan@@
evol@@
exaggeration
explo@@
ference
fertilization
fid@@
fle@@
flick
flowed
forum@@
fragrant
froze
future@@
gae
gamble
geeks
glee
goat
greener
grip
gyms
harn@@
headquarters
heartwarming
heat-@@
hiphop
icially
identical
idly
iest
incorporate
index.html
infr@@
innovating
inquiry
insane
institu@@
intrested
iry
ises
isons
ister
itely
jor@@
kov
laugh@@
lee
lf
li
lobby
mafia
man-@@
mechanic
melancholy
midst
mming
nish
nitrogen
not@@
noti@@
notified
offline
oner
opti@@
pajamas
particle
pdf@@
peas
perfom@@
perfor@@
photographers
pil@@
ple@@
pli@@
plots
precaution
press_@@
proof@@
ps@@
punc@@
punish
quakes
quick@@
quited
rechar@@
remem@@
responding
restaur@@
retailers
rig@@
rod
rop@@
rusty
sabo@@
safeguard
sav@@
self-reliance
smith
sn
snorkeling
snowfall
soun@@
spam
spill
spine
starter
strated
stressing
subjective
sus
tance
than@@
thermometer
thighs
trillion
tta
udes
unfriendly
url
vern@@
versi@@
villa@@
vitro
wana
watermelons
willpower
...@@
..@@
.4
31@@
3kg
80s
91
911
Advantages
Aero@@
Ashby
Associated
Badminton
CAMPS
Clinical
Cool
Customer
Dragons
Esp@@
Exc@@
FUTURE
Freedom
Gas-cooled
Hide@@
Hip
Histor@@
IMA
ISH@@
IST
Ishi@@
Iz@@
JAPANESE
JU@@
JUST
KARAOKE
KO
Kid
Large
Libr@@
Link
Linkin
Lou@@
MENT
Matsuri
Micha@@
Myself
Nag@@
Nano
Oper@@
Orlando
PC@@
POP
Pad
Pet@@
Phantom
Pick@@
Plaza
Power@@
Prof
Py@@
Return
Rockets
SMS
Saying
Shel@@
Sher@@
Shikoku
Sm@@
Solutions
Soy
TTER
Tab@@
Teresa
Thats
Thing
Toefl
Trea@@
View
Wednesdays
Wen@@
Wife
YES
Yao
accumulation
adver@@
aerobics
alien@@
anci@@
apologi@@
appoin@@
arbit@@
ared
ash@@
asser@@
associations
ath
ava@@
backing
berries
bert
best@@
blueberry
boasts
borrowing
browsed
calculations
cardiovascular
catal@@
cavities
celsius
ceramics
characterized
chment
cholesterol
cise
civilian
coal-@@
cocktails
collaborate
comeback
confectionery
contexts
conting@@
contradiction
convi@@
coordin@@
countri@@
critically
crows
d_@@
dashed
deceived
deeds
definitions
dentists
dispatched
diver@@
dominate
ducing
earphones
ede
eep
ember
enthusi@@
eria
exchanger
excluding
explosive
ez
fa
fabrics
familiy
familly
fastfood
fications
flaw
fores@@
gaps
googled
grapher
gues
handing
heartily
hefty
hei@@
hopeful
hydrogen@@
iden
ii@@
illed
impor@@
increa@@
industrialization
inferiority
infomation
intensi@@
intervene
invades
iration
itly
itter
ization
jur@@
kilo
lan
languge
legged
limbs
line@@
magaz@@
mam@@
mari@@
medieval
metabolism
mindsets
misha@@
mod@@
modeling
moderator
modes
mold
mony
morale
motorbikes
muddy
myths
nan@@
neighbouring
nem@@
novice
observatory
ometri@@
onies
oos
opener
overcame
overheating
panese
paparazzi
participant
people/@@
perpe@@
pit
pitiful
pm@@
polar
powdered
pre-@@
precision
prints
provinces
puzzles
rash
recovers
rectify
regu@@
rejection
resemble
reson@@
revelation
revenues
rised
robber
rr@@
sear@@
sed@@
seki
self-sufficient
separates
shabby
sheer
shiel@@
shit@@
shitty
shocks
sidewalk
simpli@@
sparkling
stly
storey
sums
superb
surrender
surviving
sweep
tapping
tative
tes@@
text@@
thirst
threatens
topping
uku
unities
unsatisfied
unskilled
utes
verify
versity
vessels
violate
violated
vocational
wasabi
watering
wifi
wikipedia
wires
za@@
zers
--@@
-23@@
.com.@@
//www.moh.gov.sg/mohcorp/@@
//www.nytimes.com/@@
//www.world-nuclear.org/info/inf77.html
//www.world-nuclear.org/info/inf@@
10kg
1th
2009-@@
3,@@
6am
ALWAYS
ANT
ANY
AW@@
Americ@@
Arthur
Assistant
BAD
BO
Bak@@
Blo@@
Brad@@
Brandon
Brow@@
Bruno
But@@
CAR@@
CHA@@
Carl
Carl@@
Chandler
Christchurch
CommunityPage&parentid
Convention
Creative
Criminal
Dose
Empire
Employees
Equ@@
Evening
Extremadura
Factory
Friendship
Fuj@@
GAR@@
GEN@@
Gold@@
Grace
Guys
Healthy
Hou@@
IM
ISS
Ipod
KAN@@
KIMONO
Khosrau
King@@
Land@@
MONEY
Masa@@
Meg@@
Nakata
Neil
Nelson
Nig@@
Nik@@
Nursing
OUS
Obi
Oda
Organisation
Paulo
Pea@@
Pixar
Plutonium
Post-it
Programming
Release
Russians
Shogi
Spears
Sti@@
Strategy
Sung
TWO
Thankfully
Thi@@
Transit
Um
VER@@
VIS@@
Waste
Wee@@
Williams
Wo
Won@@
Yankees
Yukio
_2@@
absorbing
achi
activate
adjustments
adverb
amused
anonymous
ario
attentions
audi@@
automation
ay@@
bangs
bear@@
better@@
bish
blog/@@
bracelet
brunch
buds
carto@@
catar@@
categorized
celebrates
chaotic
chool
chop
ckets
cock@@
commuters
contracted
darts
december
default@@
defferent
deleg@@
depo@@
dez
diction@@
diligence
disappoin@@
dium
divi@@
dorama
drinker
easygoing
ebay
eline
ells
emergence
ens@@
equals
erup@@
etion
evaluating
examining
excit@@
exploitation
extinction
fabri@@
fix@@
flamenco
foresee
forget@@
fossil-@@
glimpse
governing
graves
guide@@
hap@@
harmless
hei
hemisphere
hesit@@
hula
hygiene
idols
iga@@
ike
illiterate
imaged
ime@@
induced
ington
injure
introverted
irritate
ishing
ith@@
jammed
lators
leagues
licious
longtime
lot@@
magician
masen
mated
melodies
metallic
metaphor
mim@@
misfortune
nervousness
noone
nuclear/@@
objection
offend
old@@
onable
ony@@
outbreak
pag@@
paradigm
parasol
parti@@
passively
pavement
pebbles
petro@@
pilots
pls
poisonous
politeness
popula@@
possesses
pp.136-@@
predictions
prefer@@
prefered
premiere
quar@@
quilt
rai
rail@@
readings
reason@@
receiver
reforms
reluctantly
report@@
resumes
ritual
robotic@@
rock@@
sack
sank
sations
scanner
scholar
scholars
sculpture
seless
should@@
singapore.org/uploadfile/2@@
skep@@
soooooo
stained
stake
stan@@
stery
submitting
subways
sui
suite
surfaces
swinging
tator
tease
techni@@
tern
therap@@
tiful
tomatos
topics/@@
topped
tornado
trainees
truely
tub
unbearable
underwater
utilities
variable
vely
warfarin
wen
wol@@
wrinkles
yer@@
yi
youtube@@
zai
zealand
zer@@
'T
10years
1600
3pm
4pm
76@@
AIN
ARP
ARS
Acu@@
Alaska
Alex@@
Ali
Awards
BEEN
BEFORE
Bear
Bernard
Bin
Bird
Bluetooth
Box
Bright
CK
Challenges
Citizen
Commercial
Contro@@
Crisis
ED@@
Eiffel
Evangelion
Exaggerated
Flash
Geisha
Guar@@
Gunma
Hab@@
Helping
Hungary
INTER@@
Identity
Independent
Justice
KIN@@
Koku@@
Kong@@
Larry
Leg@@
Lewis
Liber@@
MAN@@
MJ
MOR@@
Ment@@
Mik@@
Morocco
Morrie
Motor@@
Nico
Nihon
Nissan
OB@@
Otaru
Phar@@
Pollution
Production
Rac@@
Reader
Rene@@
Response
SHO@@
SS
Search
Speci@@
Sri@@
Str@@
Swahili
Tokugawa
Translation
Tru@@
Tyler
UD@@
Utada
Viewpoints
Wolf
Woo@@
Yakisoba
accelerated
accidently
advocates
alarms
alities
alty
apper
assembled
asset@@
assisting
ati@@
atoms
attacking
awaiting
bc@@
behaving
bravery
buddies
bulk
channelled
cherries
chir@@
cid
cists
clarify
clearance
clim@@
clou@@
comer
comical
concl@@
confirmation
construc@@
constructions
consumes
coolest
coward
cracker
crepe
crispy
ctic
custom@@
cyber@@
declaration
defines
deliberately
diversion
dling
dubbing
dumb
dumping
eggplants
eighth
eiving
elder-friendly
elections
emitting
emphasi@@
emphasizes
encyclopedia
endured
erase
essary
estion
etting
expe@@
eyebrows
faraway
fatalities
fend
ffer
for-@@
ford@@
foregin
frea@@
gaga
gate@@
gigantic
girl@@
grandchild
grandson
greed
ground@@
hail
hammer
healty
heel
hemorr@@
honored
hori@@
horizon@@
hosting
humankind
hydro@@
iland
imasu
imitating
immedi@@
imprison@@
inactive
inated
incorpor@@
incurable
induce
infla@@
influencing
inking
insecure
insti@@
instructed
instructors
irre@@
itary
je
kab@@
keepers
labor@@
lapse
laser
lege
legendary
leisurely
liest
lil
listing
logging
lotion
macro@@
mainstream
metal@@
mir@@
nap@@
nate
nighttime
obscure
oils
omy
onics
opic
oppotunities
opy
oung
oysters
packet
payers
pharmacist
porridge
ports
practica@@
pratice
privileges
proposition
ptions
rab@@
re-
reactive
realities
recomended
recuperate
reduc@@
reflex@@
rein@@
rence
reprocessed
retirees
scenarios
sceneries
scho@@
schoolmates
sensed
settings
setup
shades
ship@@
singly
ska
skateboard
slipping
sman@@
soooooooo@@
spontaneously
sta
stig@@
subscribed
sued
superficial
suppliers
talk@@
tallest
texting
thering
tist
toads
tomy
tour@@
traditionally
traff@@
trekking
trembling
truths
ually
ule
unsuitable
vag@@
valve
variation
varying
verry
voluntarily
vous
wallpaper
warranty
waters
weakened
webs
when@@
wrapping
yrs
ywood
''
--------@@
.7
.ebscohost.com.libproxy1.nus.edu.sg/@@
.sg/@@
//ezinearticles.com/
//www.p@@
//www.singaporebudget.gov.sg/@@
1/.html
14/@@
157
20-
2007/0@@
2009,from
2025
2pm
350
4&@@
93
Aer@@
Ah@@
Asia@@
Banana
COMM@@
CS
Cheer
Chen
Chengdu
Cohen
Constitution
Consul@@
Contrary
Dancing
Daniela
Dep@@
Depending
Difference
Dig@@
END
Emergency
FX
Figure
Flower
Four@@
Fun
GIVE
GOING
GT
GU@@
Gali@@
Granada
Gump
Gy@@
HER@@
HIV
Historical
Hula
IQ
Il@@
Improving
Including
Investi@@
Isa@@
Jessica
KE@@
Kab@@
Kal@@
Knight
LOST
LSD
Lack
Languages
Las@@
Leon@@
MD
ML@@
MR@@
MY@@
Mask
Matthew
Mei@@
Meteorological
Metropolitan
Naka@@
Oriental
Ou@@
Part@@
Peninsula
Pitt
Posi@@
REFER@@
Rap@@
Rolling
Romans
Roy
SARS
SCHOOL
SHOPPING
SPUR
Scand@@
Scho@@
Single
Spr@@
Stri@@
Studios
Subway
Tsuyu
UNIC@@
VEL@@
WHICH
Warfarin
Warming
Welsh
Wide
YOURS
Yang@@
Young@@
Yoyogi
ZZ@@
_ob
abstrac@@
accented
accessory
adventurous
aggres@@
ags
aircrafts
aka@@
al/@@
aler@@
alisation
anded
answer@@
apper@@
architects
asp
assertive
assurance
ation_@@
avenue
banquet
battles
bbing
bending
benefici@@
biking
bilities
cannnot
carbon-@@
carefree
challenger
chestnut
childcare
chri@@
cion
cius
cleaners
clocks
colla@@
concent@@
conclud@@
condo
conducive
congratulated
conjunction
constitu@@
contradic@@
crashes
crawling
curve
cutter
d.
debating
demonstrations
diagram
diction
dine
discharge
disclosing
disguise
disin@@
donating
drugstore
edited
ehost@@
ehouse
eia.doe.gov/@@
encyclopedia@@
english/@@
entertained
entertainer
entertainments
ep
eschede@@
establi@@
evacuate
excluded
fermented
flourish
folder
football@@
forcast
fraud
fulltext/@@
furnitures
gazed
genetic-@@
gover@@
grill
guar@@
hahahaha
herbal
hoon
housekeeping
html/@@
iP@@
ideology
ik@@
implantable
implantation
implied
impres@@
infringement
ingers
inheritance
injected
intriguing
intrud@@
isnt
izakaya
jack@@
jang
jun
kicking
kilo@@
kingly
laps
licenses
locating
manufac@@
means@@
ment_@@
merged
ming@@
minimizing
miti@@
monotonous
movi@@
mud@@
multicultural
natural@@
neutral
nineteen
nonetheless
nostalgia
notorious
nut
oC
obli@@
offenders
onist
optical
oxid@@
p.nsf/WPDis/@@
pandemic
paperwork
pati@@
paved
pears
pedal
phobia
photoes
planetarium
pleas@@
pops
post-@@
priori@@
prog@@
purchases
ram@@
re-employment
realism
reformed
refueling
registering
relied
repetitive
reproduce
resses
ret
retaining
ridden
robbery
room/@@
rud@@
s-of-@@
scratched
screwed
securing
seg@@
senior@@
sett@@
shield
shifting
sided
signing
simil@@
simplify
skateboarding
sleepless
smog
soar
specifications
spellings
state-@@
stereotype
stinky
stitu@@
sumi
sunscreen
supplier
swi@@
sympathetic
take@@
tation@@
transaction
transplan@@
troubling
tsuk@@
tutorials
uan
ultra@@
unbrella
underestimated
updates
uri@@
uts
vent@@
vered
very-@@
vibrant
vich
violet
warehouse
warmly
watt
wrongly
yam@@
zumi
zzle
'Reserved
1975
1982
19:00
5cm
87
Agri@@
Allah
Alternatively
Aquarium
Arri@@
Assistance
Aug@@
Avenue
Barack
Broadway
Bus@@
Buses
Butler@@
CAS@@
COULD
Catalonia
Chan@@
Chang@@
Cola
Conan
Concer@@
Cracow
Document@@
EF
ENCE
Effect
Eleven
Facilities
Far
Filipinos
Flu@@
Guy
Has@@
Higashino
Hikaru
Improve
Jul
Kel@@
Kelly
Kuwait
Lead-Cooled
Luckly
MIK@@
MOST
MUST
Needs
News@@
Official
Organi@@
Plu@@
Politics
Produc@@
Qi@@
Retrieve
SEN
SUSHI
Sem@@
Serendi@@
Soft
Success
TDL
Takao
Theater
Tong
Total
Tow@@
Trains
Tuna
Tw@@
VISA
View@@
WHY
Walt
Wan
Wat@@
Wu
YU@@
Yuka
adhere
adulthood
advent
age-related
aisle
anics
answ@@
anton
applause
archaeo@@
arduous
arg@@
assists
asu
atives
atom
attributes
author@@
awsome
barbershop
birth@@
boa@@
bori
briefing
builds
camel
cann@@
canvas
capacities
cavity
cello
chall@@
championships
cogni@@
compounds
conclusions
contented
contractor
copy@@
counselling
crats
creators
damp
danc@@
daug@@
deser@@
destined
detergent
dictronary
diplom@@
disapointed
dries
dv@@
dynamics
earnestly
eberg
eccentric
edule
embarra@@
endeav@@
entation
ention
environmental@@
esse
essors
etiquette
evolve
extinct
eyed
fast-@@
feminine
fit@@
flavour
fluorescent
footprints
fraction
freezer
frend
frinds
fter
fting
fuly
furi@@
gentlemen
gest
geting
gger
gig@@
gossi@@
gut
haku
hears
hou
hum
hydroelectric
idity
imperfect
impractical
indication
individuality
intends
intent
ints
intuition
invaluable
joints
justified
latent
lever
lighted
liter
lod@@
mae
microphones
minced
minimise
minus
misleading
mmm
moisture
molecular
mond
money@@
monit@@
mug
nausea
navi@@
nis
noting
objectively
ody
offence
oi
oki
oooooooo@@
orderd
originality
ority
oto@@
ounce
overcoming
ower
pellets
penny
permanently
pg
pharma@@
pot@@
presidents
pricing
progres@@
progressed
pronouncing
prosp@@
rant
rati@@
recharge
recoll@@
renovation
repu@@
rer
reset
rests
rethink
reuse
revi@@
revolution@@
robbers
roo@@
rub
sacrifices
scares
scol@@
sens
settling
sic
similarly
sliding
smar@@
spilled
spin
starters
stup@@
superiority
surve@@
taiwan
technicians
tedly
terrifying
ticide
ticism
tionary
tough@@
track@@
trainers
transferring
transi@@
tro
tter@@
twist
ubiquitous
ument@@
unimportant
usefulness
vanish
videogames
vis
warnings
weary
wicked
workplaces
yakisoba
yea
young@@
zen@@
zy@@
,00@@
,2004
.ca/@@
.com/article@@
//www.ac@@
//www.bca.gov.sg/@@
//www.business@@
//www.d@@
//www.hdb.gov.sg/fi10/fi1020@@
//www.nature.com/@@
//www.world-nuclear.org/info/inf0@@
/04/@@
/pub@@
03@@
100km
10am
12/@@
146
1_@@
2005/@@
2251&parentname
240@@
250@@
30km
30min
3th
7years
84@@
8am
9&_@@
A-@@
A1Story@@
AGAIN
Adri@@
Alter@@
Alternative
Amazing
B6@@
Berkeley
Brea@@
Business@@
CET4
CPA
CSI
CT
Chrismas
Content
Critical
DD@@
DID
DON'T
Dalian
EJ3010@@
EST
Edit@@
Eg@@
Eight
Elder@@
Energy@@
Examples
Facing
Feburary
Fighters
Finished
G.@@
GenIV@@
Goh
Graham
Greenpeace
Greetings
Greg
Hair
Heathcliff
Hong@@
Hyatt
ICT
ING@@
IO
Influenza
Intelligence
Iranian
Kaohsiung
Kiyomizu
Lab@@
Low
Ltd
Mediterranean
Mem@@
Memory
Met@@
Mister
Mohamed
Mohammad
Mori
Murphy
NEW@@
NGO
NL@@
Nation
Ning@@
OBON
ONG
Oni@@
PAS@@
PLEASE
Pandora
Pasta
Perth
Ph.D.
Poc@@
Pride
Radio-@@
Rakugo
Redemption
Rog@@
SAN
SHOULD
Sakamoto
Setsubun
Sharp
Shawshank
Sheldon
Speak
Spencer
Ss
Statue
Sto@@
Sukiyaki
THING
Tama
Tenerife
Tianjin
Tibet
Tucek
Umeda
Vide@@
Village
WRITING
Wild
Wo@@
Works
Wright
Yakitori
ablo
achive
adjustment
admiration
adopts
advisory
ailments
aissance
amuse
anium@@
applicant
apricot
arday
aring
ark
arthritis
ary/@@
ases
asiaone.com/@@
attentive
attribute
authorized
aways
beautifull
bin/@@
biography
blogspot@@
blooms
bonito
boundary
bowls
brakes
broadca@@
buck
buster
caff@@
cali@@
carbohydrates
care-@@
caregiver
catho@@
certain@@
ch-@@
checkups
cheeks
collea@@
comb
communiti@@
competed
competitor
comunication
congested
conquered
contribu@@
contributors
coordination
cow@@
cuse
d,@@
daily.com/@@
dead@@
debat@@
debts
defen@@
depicted
desc@@
diced
dier
dim@@
dimensional
diplomatic
disaster@@
dispu@@
doses
dou
enforcement
engine@@
enrichment
epi@@
er/@@
eva
exclude
execution
expire
exploited
exploiting
eys
flow@@
follower
font
footsteps
franchise
fright
gang@@
gaze
gence
gf
gish
gos
gre
grou@@
guo
heartbeat
heath
hol
humane
iKnow
iPhone@@
impending
incorrectly
inflammation
intensively
inventor@@
invoice
iously
istic
itor
jury
kilos
kindle
lander
launching
lest
liberty
lica
ligraphy
lily
logies
london
lowed
lum@@
lump
lunchbox
mai
margin@@
marketed
md5
mentor
microwaves
mies
ministry
mit.edu/@@
moderately
mu
nationwide
necc@@
nega@@
nerd
nomal
nuclear-power-@@
nurture
nutri@@
obsession
occasional
ock
ogni@@
oi@@
omelet
ometrics
orderly
orts
pastor
patch
pd@@
pdfs/@@
penpal
phic
philosopher
physicians
pillar
pinch
pino
poodle
proposals
protective
prudent
purification
qualifying
questioning
racism
radio-frequency
radius
recruits
reflex
refuses
register@@
repa@@
reportedly
resources/@@
restless
restructured
resumed
retr@@
reversed
riders
rol
rung
s.com
safari
salted
sands
satellites
science/@@
scwr@@
sei@@
shaked
shakes
shivering
shopped
skin-@@
skins
smelling
so-@@
soju
sportswear
sprained
staircase
stics
stingy
story/@@
stur@@
substitu@@
sunburned
superstitions
survivors
swal@@
t_@@
tail@@
tally
tated
thirds
though@@
ticip@@
timetables
tongues
topic@@
tow@@
tripped
unauthorized
uncles
upgrades
vaguely
vali@@
vet@@
view.@@
ville
volunteered
waitresses
walk@@
watered
weapon@@
whipped
wit
yoghurt
zon
zoo@@
100,000
2.1
ACH
AKI
ALSO
ART
Against
Anatomy
BGM
Benjamin
CAM@@
CER@@
Cake
Catherine
Ci@@
Cliff
Communi@@
Cul@@
DING
ENC@@
Eagles
Edition
Egyptians
Employ@@
Ernest
FFXIV
FY@@
Ferrari
Foods
GL@@
Gan@@
Gen-@@
Ground
Gulf
HELP
Hang
Heian
I'm
I.
Identi@@
Ig@@
Jet
Jonathan
Kennedy
Key@@
Kuala
Kung
LD
LIS@@
LIVE
LONDON
Late
Low@@
MAT@@
MEN
Mak@@
Malay
Members
Mich@@
Month
Nan
Nom@@
OTAKU
Octo@@
Ordinary
PA
Panasonic
Philipp@@
Ponyo
Pray
Priority
Program@@
RAD@@
RI
Rich
Run@@
Ryo
SAM@@
Sashimi
Set
Shang@@
Shirin
Singap@@
Suzuki
TM
Theore@@
Truth
UND@@
URA
USJ
Undoubtedly
Universe
Watanabe
Watch@@
Wonder
YEAR
Za@@
Zen
a.m.
abu
achiev@@
administra@@
afternoons
agoni@@
ah@@
aj@@
alizing
ameli@@
ampli@@
anas
aned
astronomy
atory
awar@@
believer
beneath
blackboard
blade
boar
bob
box@@
brewery
bronze
bush
bushes
butt
by-product
caf@@
calf
characteri@@
chem@@
chromosomes
cket
cleanliness
cocoa
coherent
condi@@
confron@@
consonant
corrupt
cost-@@
cost-effective
could@@
counterparts
coutries
curly
dd
dding
dearest
declar@@
decommissioning
dedication
deterrence
dialogues
diets
distinguished
disturbance
doesnt
economists
eg
elabor@@
electric-powered
emb@@
enth@@
eshi@@
eship
eu
eval
everday
exist@@
expan@@
expon@@
fle
flyer
foc@@
foriegn
fortun@@
forwards
fragment
ft@@
fted
fullest
glorious
governed
grav@@
hh
hm
hose
hut
hydrangea
ice@@
iler
illuminations
immer@@
inexperienced
infect
inglish
inity
inputs
ins@@
insurers
interest@@
internships
invest@@
irrigation
itinerary
jeopardi@@
judo
kok
lal
library@@
licit
limitless
llers
mage
mage@@
mahjong
mailbox
masses
measuring
medical@@
medit@@
metals
methodology
minimizes
modifying
monopo@@
mould
nab@@
natures
nominated
norms
notable
numb
observations
odor
ography
omi
omitted
onese
openly
orn
outed
parliament
partnership
phen@@
phra@@
picky
piss
plying
post-it
presidential
preva@@
proj@@
prop@@
protesting
protests
publici@@
quantum
racist
racking
ranges
remake
resem@@
resp@@
restra@@
restructuring
rhy@@
rob
rooted
rubble
sai@@
sayings
scales
scars
scientifically
securely
severity
shed@@
shoppers
showers
shutt@@
sition
sland
smiley
spells
spl@@
spoons
spor@@
stle
stringent
superman
supervisors
suring
sweeter
symp@@
tablets
tate
temperture
thought@@
ticular
touring
trou@@
tte
tuned
tutorial
unbelievably
untrue
unversity
user-friendly
vegetarians
vigorous
volumes
votes
vulgar
ween
wierd
xing
&contentSet
-3@@
.i@@
.org/documents/@@
.s@@
.stm
//blog@@
//danger-ahead.railfan.net/features/@@
//web@@
//www.mo@@
//www.science@@
//www.sciencedirect.com.libproxy1.nus.edu.sg/@@
10:00
123
195@@
2&@@
2007/01/@@
220@@
2C@@
2am
3.pdf
345@@
4_@@
6.pdf
650
8000
ADA
Accessed
Aid
And@@
Angeli@@
Bachelor
Beatri@@
Bec@@
Bella
BlackBerry
Blu@@
CAN@@
Causes
Certain
Chelsea
Chemical
Chopin
Chu@@
Coal
Concerns
Contest
Defin@@
Demo@@
Demons
Educational
Exam@@
FASHION
FREE
Faculty
Forces
Franc@@
Franklin
Funding
Futhermore
GF
GREAT
Groups
Growing
HOME
Hmmm
ISE
Imp@@
Incheon
Ing@@
Ino@@
Internship
Ishikawa
Israeli
Jeff@@
Jeffrey
Jurong
Kafka
Kak@@
Kato
Kom@@
Lakers
Latest
Lennon
Lie
Lily
Limited
Lyn@@
MM@@
MRI
Manila
Manuel
Mee@@
Member@@
Milk
Mini
Mini@@
Minist@@
Momo
Momoko
Mongolian
Moore
NSTL@@
Noodles
O.@@
Oh@@
Oita
Onigiri
OpenDocument
Opening
Orchestra
PT
Performance
Ph
Phili@@
Pin@@
Plastic
PlayStation
Poli@@
Premium
Pros
Providing
Pun@@
QK@@
Qingdao
RESTAURANT
Ray
Respect
Ret@@
Romance
Sad
Sad@@
Safe
Sandra
Sc@@
Secondary
Sent@@
Shi
Shortly
Sof@@
Sop@@
Speed
Started
Strangely
Sudan
Supporters
TON
Takahashi
Taste
Teach
Tests
Todays
Tomato
Walter
Wood@@
Xperia
Yuk@@
a.html
abandoning
accommo@@
ada@@
adaptation
aiding
aluminum
anism
anity
ansen
appeals
appri@@
archy
arena
arimasu
arouse
art@@
asy@@
aus@@
await
backward
balancing
bats
bbling
bc.@@
begged
bliss
blonde
bonuses
brainstorming
bustling
campany
canadian
cancers
cant@@
carbide
caregivers
carp
categori@@
cater@@
caterpillar
cease
central@@
cgi/content/full/@@
cherished
chestnuts
chiroprac@@
cians
clearing
climax
collabor@@
colonial
color@@
companions
comprised
confuses
consciously
conveyor
cooper@@
copper
cough@@
ctions
deliverables/docs/@@
dently
depend@@
descendants
destroys
deta@@
diagnose
dilu@@
dio@@
diversified
documentation
donut
dot
doub@@
dre@@
drip
dude
dum@@
durability
dust@@
eb
eday
eeee@@
efly
efully
ein
eldercare
electric@@
encry@@
engers
enn@@
enriching
ergonomics
erson
es.html
essi@@
ethic
etsu
etta
ety@@
exac@@
exceeded
exha@@
extravagant
ffed
fiable
filing
fished
fragments
fran@@
fuss
gel
goose
graders
graphs
grotesque
halt
heaps
hhh
hides
hime
hmmm
hugs
hyper
ident@@
index.php/@@
inga
inge
inspect
integra@@
intermit@@
interro@@
introduc@@
isty
iter
journeys
kee@@
keenly
kichi
knitted
knives
kus@@
l-@@
labels
lam@@
legisla@@
libproxy1.nus.edu.sg/@@
licensed
liqu@@
locomo@@
longed
lotus
love@@
lucrative
mak@@
mand@@
marking
matsu@@
maya
memorization
mista@@
misused
mity
mori
muffin
nephews
nered
newcomers
nl@@
norma@@
omical
omo
omous
onigiri
ope@@
optimize
ores
outskirts
oversleeping
paraly@@
pated
pea
pec@@
perfec@@
pest
photoshop
plo@@
pointless
pos@@
predicting
premises
program/abstracts/@@
prompted
pronun@@
psycho@@
qi@@
qualify
quitted
reciting
recogni@@
refresh@@
refreshment
relaxes
repay
repercussions
repli@@
res/@@
resol@@
retailer
retiring
rfid-@@
ripped
rying
salvage
scanning
scratches
sedentary
sewed
shovel
shrink
sima
sine
sket@@
sles
slowed
smallpox
snoring
socializing
southwest
speechless
spy@@
squash
sson
stag@@
station@@
statistical
stems
sten
sterday
striving
student@@
sulfur
summer@@
supernatural
supplementary
tango
tas
testi@@
theoretically
thri@@
tidal
tiest
tish
toefl
tomorow
tore
touri@@
tragedies
trait
triathlon
ttered
ture@@
ulation
ulous
umed
unreliable
ural
usan
verge
ves/@@
violates
whichever
wonderfull
workaholic
wrist@@
yay
ylon
yon
yourselves
,2008
.org
//search@@
104
14.@@
1940
1950s
2D
76
ASE
Ages
Annex
Anti-@@
Appli@@
Austrian
Automo@@
Basi@@
Batman
Bean
Birds
Bo
Book@@
Bull
CIA
Canyon
Caroline
Challenge
Christopher
Classes
Click
Compare
Cost@@
Deep
Demographic
Difficult
Double
EXPO
Edu@@
Effective
Elementary
Event
FA
FORM@@
Fat
Fif@@
Fossil
Gables
Guangdong
Gym
Gym@@
HTML
Hakama
Hear@@
Hehe
Homes
Hun@@
Inari
Income
Iwa@@
Joint
K.@@
Kana
Kei@@
Kent@@
Kenting
Kiss
LING
Les
Lets
Lic@@
Liu
Location
Lumpur
MUCH
Mang@@
Marriage
Matsui
Matsumoto
MediShield
Michelle
Miku
Moo@@
Mountains
Mul@@
NY@@
Naz@@
Ner@@
Nev@@
Norr@@
Nuff@@
Odaiba
Omi@@
Original
Outlook
Ox@@
PLAY
Peter@@
Pit@@
Pooh
Possibly
Pre
Presentation
Proto@@
Psy@@
Quality
Reasons
Recommendations
Resour@@
Retri@@
Revi@@
Rub@@
Ryu
SK
Sand@@
Schools
Sla@@
Sound
Squ@@
Stockholm
Sugg@@
Summary
Support
Syn@@
Thursdays
Tired
Torii
Vocabulary
WAN@@
WEB
Wak@@
Wales
Wha@@
Wu@@
XX@@
Yep
Yoshinoya
Zam@@
absolu@@
acqu@@
adjectives
agit@@
alloys
amend
ames
ane@@
announcements
anticipation
appreh@@
aqua@@
astronauts
aton
bai@@
bald
batter
bby
beetles
bey
bleed
blend
blocking
boiler
bookshelves
bothersome
bourne
bravely
breath@@
broccoli
brother@@
bulky
camels
cameraman
categor@@
cedar
chann@@
chap@@
clause
coa@@
coating
colum@@
commercially
commodity
commuted
compan@@
comply
conceived
concep@@
constitute
croissant
cross@@
curricular
cus
dame
daunting
dern
differentiate
diminish
disagreement
distract
distraction
dna@@
docum@@
dojo
dren
dres@@
dum
dur@@
eagerness
earns
earring
eater
edges
edible
edo
emoticon
endings
enger
ensive
eras@@
erate
erence
ese@@
ession
essions
etary
excep@@
feed@@
figuring
flashed
fluctu@@
forwar@@
fruit@@
gears
gins
girly
glaci@@
gracious
grains
guitars
gust
harness
haun@@
healthily
high-tech
hindrance
hog
homec@@
hormone
humani@@
hydrangeas
ient
igners
illing
inaccurate
inauguration
incense
industri@@
inspi@@
instances
insulted
irritable
ities
ject
jou
jou@@
jyo@@
killers
kkk
lac@@
landmark
lawyers
leage
len
lick
lizard
logs
lord
lotteries
lowers
mann
maru
mathematician
merchant
mill
misconception
module
mosquitos
mous
narrator
nian
nude
nutritious
odon@@
odori
ones@@
onia
opes
organism
origins
orthodox
ounced
ounds
outrageous
p.m
pare
pastime
pathetic
perceptions
petal
peti@@
pi
piles
pioneer
plastics
plum@@
plums
poets
posible
pover@@
ppines
proactive
programmers
proximity
rails
rationally
relieving
reminding
representation
resi@@
ressive
retrieve
retrospect
rul@@
ruption
rus@@
s-
seashore
sed-@@
seem@@
semary
setbacks
shochu
sixty-@@
sluggish
souven@@
spects
spheres
sporty
stabilize
stacked
stan
stem@@
stic@@
stung
subsidize
sukiyaki
summertime
suppor@@
supporter
surfer
swelling
tacos
tancy
tanned
teas
tempted
tention
thirties
toothpaste
tories
tracing
travel@@
troub@@
turi@@
turn@@
tweeted
typoon
uated
uda
unbalanced
undeveloped
unfinished
uninteresting
ussi@@
utterly
uture
uyama
vacu@@
vals
vement
veterinarian
vin@@
visit@@
voir
vulnerability
wached
walkway
walnut
warrior
wei@@
wen@@
whe@@
yam
ycle
ze@@
zombie
zuki
.com/new@@
.jp/@@
.jsp
.nus.edu.sg/@@
.org/
.uk/@@
//app.mcys.gov.sg/web/indv_@@
//find.galegroup.com/ovrc/infomark.do
//ghr.nlm.nih.gov/handbook/testing/genetictesting
//mycpf.cpf.gov.sg/CPF/@@
//news.@@
//news.bbc.co.uk/2/hi/europe/@@
//www.cogeneration.net/Very_High_Temperature_Reactor.htm
//www.i@@
//www.inspi.ufl.edu/icapp@@
//www.l@@
//www.mcys.gov.sg/MCDSFiles/@@
//www.rfidjournal@@
//www.un.org/esa/population/publications/worldageing19502050@@
/07/@@
/health/@@
01.html
1300
160
29/@@
3months
4.html
40s
5022@@
57@@
77
8.html
82@@
8_3-@@
9.html
ACE
ADVERTIS@@
AST
Act@@
Activity
Adams
Ana
Birth
Bogonikolos
Brighton
CONCLUSION
Capital
Care@@
Carter
Catal@@
Centr@@
Cities
Cl@@
Comic
Conn@@
Correction
DD
Dal@@
Declaration
EX
East@@
Education@@
ElderShield
Enh@@
Es
Exper@@
FORT@@
FR
Financing
Flu
Foster
Free/@@
GE@@
GEN
GMAT
GSRC&type
Gale
Get@@
Goal
HAN@@
HIM
HO
Hai
Hamp@@
Hills
Holes
Houston
Huge
Huk@@
Hyun
Ich
Idol
Ihave
Info@@
Informa@@
Invent@@
Italia
Ju
Judging
LASIK
LET
LS
LWR
LWRs
Legal
Lon@@
MAKE
MO
Maldives
Manufac@@
Material
Maxwell
Mega@@
Milky
Mission
Molly
Mon
Mothers
Nadal
Nakamura
Natalie
Netherland
Newton
Novosibirsk
OVRC&docId
OVRC&userGroup@@
PDF/@@
PRI@@
Parliament
Perfume
Person
Phillip@@
Pod
Qatar
Que@@
RBMK
REE
RP
Rings
Rit@@
Rosetta
Rum@@
S/@@
SOBA
SPORT
STAR
STARTED
STE@@
Satsuki
Sense
Silence
Singapore@@
Sitting
Ski@@
Smile
Software
Soju
Songkran
Soo
Stand@@
Story/@@
Sumida
Suz@@
Syed
Syndrome
T010&prodId
Tang@@
Trust
URL@@
UV
Valencia
Veri@@
WAS@@
Wellness
Westerners
Whose
Wilper@@
Yakuza
Yamanashi
Yea@@
Zhang
Zi@@
Zu@@
aa
abolish
acha@@
ageing@@
ageism
ages/@@
ales
alise
ance-@@
anni@@
antenna
appreciative
argu@@
assemble
assign
aunts
babysitter
backpacker
bathrooms
becom@@
bian
biscuit
bito
bitter@@
bla
bler
blink
bloggers
bran@@
breaststroke
bridegroom
brushes
bump
bune
c-@@
cac@@
calculator
calss
chel@@
chur@@
clari@@
clarinet
coma
comment@@
commu@@
computeri@@
confer@@
conspicuous
contem@@
costing
crashing
criterion
cutest
cyber
das
dations
db
dder
deadlines
debatable
decision-@@
deepen
dehydra@@
deliberate
depri@@
descriptions
development@@
devised
diagnostic
dictate
dietary
diferent
disadvant@@
disciplined
discus@@
dismiss
disposition
distinction
doma@@
doubtful
dow
drier
drift
ebook
ecture
enh@@
ereby
estic
evey@@
exca@@
exceptionally
exhaustion
expenditure_overview/@@
explorer
expo
eyelashes
fading
family@@
fasting
favors
first@@
fissile
foggy
g/@@
gale&srcprod
genIV/documents/gen_iv_roadmap.pdf
geograph@@
glove
goddess
gosh
greasy
gur@@
handkerchief
harvesting
headline
headphone
hec@@
hem@@
here@@
hhhh
hoarse
hone
housemate
humanities
hygi@@
hyper@@
immerse
immunity
incur@@
indicator
industrious
informs
itations
iti@@
january
jewellery
jing
journalism
jumper
kaido
kari
kish
kiwi
labs
ladder
lain
legends
legi@@
lengthen
lethal
libr@@
lio
liy
llen
login@@
lone
magazine/@@
many@@
mao
marshm@@
measu@@
mens
meow
midsummer
molten@@
moonlight
motiv@@
mr
nally
nasa.gov/@@
nasal
nature/journal/v@@
nesses
newbie
nic
nr@@
nusself&version
oceans
oh@@
olan
ongs
ophone
orig
oured
packets
pedestrian
people@@
pix@@
plagiarism
plaza
poker
ported
ppers
preparatory
preservation
prevailing
princ@@
prioritize
professions
profitability
projec@@
proto@@
proving
provisions
quids
quiries
r/@@
ractors
recipi@@
reflecting
relo@@
remade
rendered
requi@@
research/@@
ressing
resturant
rete
retrieve&@@
reuters.com/article/@@
revising
rid@@
rite
rounds
saga
sanitation
scoop
sensational
sensei
sep@@
separating
sexuality
sg@@
shaving
shim@@
shines
shtml
sibling
sie
sinking
snap
soul@@
spa@@
spit
sprink@@
sticker
ston@@
story_id
stration
stren@@
stron@@
suda
surplus
survi@@
sweetness
swung
synchroni@@
tably
tackled
taxpayers
teammate
televi@@
testing@@
tet@@
themes/@@
they@@
thunder@@
tician
tionality
tis
titis
tizen@@
toon
traced
tract
transforming
ulcer
uming
uncertainties
undertaken
unmarried
uphill
us-@@
utionary
venly
versible
vhtr.shtml
vie
vigor@@
visually
vocaburary
vodka
vomited
vorous
waste@@
weir@@
wizard
working-age
yama@@
ycling
yester@@
yoshi
zzling
//www.associatedcontent@@
1.3
1000yen
165@@
170
1am
200000
220
73
81
Adidas
Ae@@
Argent@@
Arguments
Assessment
Associ@@
BALL
BM@@
BOOK
Banks
Barri@@
Berry
Bet@@
Classical
Co.
Colombian
Communist
Compar@@
Cooper
Creating
Dave
Designing
Direct
Downtown
ENG@@
ESS@@
Econom@@
Engine
Equinox
FAC@@
Focus
GAGA
Generation-IV
Geography
Gothic
Gran@@
HEL@@
HY@@
Hei@@
High-Temperature
Hud@@
Ichi@@
Indica@@
Individu@@
Info
Innovative
Intel@@
Iv@@
Jakarta
Jamie
Jr
Jud@@
KED
KI
Kara@@
Kick
Kyo@@
Labour
Lar@@
Le
Lego
Lucas
MC
MW
McCar@@
Message
Mos@@
Mubarak
NAT@@
Nirvana
Noy
Nutri@@
OUN@@
Oliver
Opinion
Page@@
Parade
Paraguay
Pay@@
Philosophy
Prof@@
Python
Queen@@
Qui@@
REAS@@
RF@@
Ralph
Reactor@@
Red@@
Ree@@
Regi@@
Ren
Resident
Rich@@
Richar@@
Rihanna
Riku
SEE
SPE@@
Scout
Self-@@
Shonan
Sim
Sleep
Snow@@
Spir@@
Stre@@
Subsi@@
Sym@@
Syria
TESOL
Tac@@
Tag@@
Tamiflu
Tears
Temperature-@@
Tokai
Toru
Trees
Tsukiji
VES
WEEK
WELL
Wearing
What@@
XP
Xi@@
Yat@@
abnormality
aboli@@
accommodations
accompanying
accompli@@
ach@@
addi@@
ado@@
adolescence
agility
agreements
ailment
also@@
alum@@
ambiance
ana@@
anged
angrily
anthem
ao@@
apparatus
arabic
architectures
arose
array
atal
ato@@
attained
autom@@
banker
battlefield
beam
because@@
betray
bill@@
bluetooth
boosting
booths
brainstor@@
bull@@
burdened
canal
catchy
cemetery
cereal
chable
charms
chilled
chore
classify
combinations
companionship
completly
complex@@
conceal
constrained
contests
contractors
cores
courageous
crews
cursed
cyclists
dae
dah
dang@@
dared
daugther
degra@@
deliver@@
dents
desig@@
determinism
diac
dinosaurs
disc@@
disney
disparity
dist
ditions
dity
dors
downside
drowned
easi@@
ectively
ectly
ed-@@
eda
emia
emphasizing
enclose
encountering
ente
enthusiastically
enviro@@
epidemic
eru
estions
ethically
exemp@@
find@@
flower@@
freeway
fulfillment
gays
ghua
gladly
goto
gradual
granny
guarding
habitat
hall@@
handles
harmonica
hating
hier@@
high-temperature-@@
history@@
hito
horns
hotmail
i.e
ians
ield
ignores
imposing
impulsive
instal@@
instilled
intending
interpre@@
interviewers
interviewing
intricate
invading
irony
isting
itative
itching
jealousy
jing@@
kangaroo
ketchup
kita
koreans
lame
length@@
like@@
lime
limit@@
lip@@
liqueur
litan
load@@
loading
mackerel
magni@@
mascot
metro@@
microscope
mighty
mileage
mimic
missioned
moning
myspace
nihongo
nod
ns@@
nuances
obedient
omelette
omen@@
oooo@@
oph@@
opp@@
oshi
outage
ox
oxides
oya
pacific
panor@@
petty
pina
pion
place@@
plant@@
plausible
polo
porch
portraits
possessions
preced@@
premise
prohi@@
projector
proofread
propaganda
pyramids
quez
recipro@@
rect
recur@@
refin@@
reforming
refuge
regulate
renov@@
rical
righ@@
rily
river@@
rub@@
rubbing
sail
saka
salesperson
seating
secre@@
seeks
semiconductor
sentiment
sequences
shepherd
sher@@
shutting
sighed
slavery
slo@@
slows
smelly
smoo@@
sms
soc@@
sorted
spec
startup
step-down
stock@@
stres@@
stumbled
subculture
subscription
subsidiary
suicides
swan
sweaters
sweeping
swiftly
swit@@
tates
telly
tensions
through@@
tidying
tit
to-@@
toasted
tou
touch@@
trams
traning
treaty
trimmed
tumor
twent@@
twentieth
tz@@
umm
undeniably
underneath
unintentionally
upward
vanity
vibra@@
vie@@
vig@@
villagers
violently
virtues
volcanic
wall@@
warm@@
weal@@
whaling
winters
withhold
wold
wood@@
&_user
)@@
.com.au/@@
.fr@@
.gov.@@
.inel.gov/@@
.nih.gov/@@
.org@@
.us/@@
//agingresearch.buffalo.edu/ceu/module_@@
//app.@@
//www.bioethics-@@
//www.cancer.net/@@
//www.e@@
//www.ecolo@@
//www.economist.com/@@
//www.gen-4.org/@@
//www.genome.gov/@@
//www.m@@
//www.mcys.gov.sg/successful_ageing/report/CAI_report.pdf
//www.ncbi.nlm.nih.gov/@@
//www.nei.org/@@
//www.nucleartourist.com/@@
//www.r@@
//www.thedoctorwillseeyounow.com/@@
//www.us@@
//www.wired.com/@@
//www.world-nuclear.org/info/chernobyl/inf07.html
/documents/@@
00000
04@@
1/
12-@@
1955
1973
1983
1kg
20,000
238@@
2BOr
429238@@
45am
610@@
7.html
9-@@
AA@@
ACK
ADVANTAGE
AE@@
AIESEC
ANT@@
ATIONS
Adobe
Andre
Anthony
Application
Asia/@@
Atlanta
Awaji
BLUE
BON@@
Bac@@
Barrier@@
Becuase
Belgian
Bellis
Benefits
Bobby
Bond
CEN@@
CLOSED
Califor@@
Cancer.net
Champion
Character
Cheese
Chief
Chin
Cited
Classic
Confu@@
Congratu@@
Connor
Consumers
Cooperation
Curious
DB@@
DISCOUN@@
DOR@@
Daisuke
Dandery@@
Dat@@
Davis
Delhi
Denise
Der@@
Dic@@
Dick
Die
Din@@
Disorders
Docomo
Douga
EA
Eid
Electronics
Enlgish
Equi@@
Era@@
Ess@@
F.@@
Facts
Fit
Flowers
Fly
Fortune
Frankfurt
GOD
GT@@
Gun@@
HAHA
HT
Hahaha
Hamamatsu
Haru
Hawa@@
Heathfield
Heights
Hejz@@
Hig@@
Hina
Hir@@
Hitler
Hua
ILL
IMAX
Idea
Implications
Index
Indiana
Ipad
Ise
Izumo
Janpanese
Jer@@
Jingu
Juli@@
KARA
Kiev
LAS@@
LF@@
LG
LI
Legend
List@@
Lockheed
Luc@@
MODERN
Macao
Maha@@
Maiko
Mango
Mei
Mess@@
Mi
Miles
Mitsubishi
Monkey
NARUTO
NER@@
Natal
Nemo
NewYork
News/Singapore/Story/STIStory_@@
OL@@
OTO@@
OUGH
Offic@@
Oto@@
PAT
PDFs/@@
PLAN@@
Pad@@
Peking
Period
Po
Polytechnic
Processes
RIGHT
Rafael
Record
Regency
Rela@@
Report.pdf
Reports
Riyadh
Roomba
SBS
SKYPE
See@@
Sentence
Smo@@
Sophia
Stephanie
Stress
Style
Sul@@
TEM@@
THEIR
THEM
TODAY
TX
Tal@@
Tanz@@
Tasmania
Terrible
Tet@@
Thompson
Tibetan
Tijuana
Twin
Ume
Uruguay
VN
Vic@@
Vincent
Virginia
Vla@@
WA
WEE@@
Wi-@@
Win
Wong
Wuthering
Ya
Yuna
_news/@@
a.org/@@
abusing
actin@@
aday
adh@@
advi@@
ages-@@
agreeable
albeit
alerts
alleys
alloy
annou@@
annoy@@
anta
anticipating
anxi@@
appreci@@
asan
asserted
at-@@
attends
au/@@
aw
awaited
awk@@
bacterial
bagg@@
baidu@@
bao
beast
been@@
beggin@@
bioethics/@@
bizarre
blanks
blindly
blizzard
blouse
booklet
breaker
brightness
brithday
broth
bureau@@
burn-up
campsite
cano@@
capped
car-@@
carved
charismatic
childr@@
chilling
chor@@
cially
cinnamon
clever@@
cod
collective
com_@@
comfort@@
commenting
complexion
comprise
compromising
conception
condensed
confirming
conflic@@
consi@@
contend
coordinator
crocodile
crust
d.com/@@
dark@@
de-@@
deca@@
dermato@@
descent
deteriorated
devo@@
diaper
dice
digging
dimension
disap@@
disappearance
distrac@@
dived
diversi@@
dizz@@
doc/@@
doughnut
dre
drinkable
ducted
dwell@@
eber@@
economist
eek
eko
elevators
eleventh
energy/@@
enly
enormously
enrollment
entities
ento
envel@@
eph@@
estimates
etter
evalu@@
excell@@
explor@@
exports
exterior
extro@@
factor@@
fairness
feature@@
festive
ffs
fibro@@
flat@@
flee
follow@@
foreseeable
freelance
futile
gall@@
geneticinfo@@
genome
giants
gically
goats
google.com/@@
grain
guarantees
hang@@
happen@@
harry
heroic
hostile
ilience
ily@@
imbalance
immigrant
imparting
imperial
implan@@
inches
inconveniences
indul@@
infring@@
ingen@@
ington@@
inisnkm/nkm/aws/htgr@@
innocence
inser@@
insulting
international/@@
intervals
intimacy
invasive
isi@@
isin@@
isotopes
isy
ity-@@
jac@@
jewel@@
jiang
joys
jung
kaku
ke.@@
kilowatt-@@
kinetic
knocking
knowledge@@
kushi
lancaster@@
langau@@
lead-@@
lectured
ley@@
lly@@
lodge
luxu@@
macy
marathons
mats
mega
melts
mentation
modular
moods
more-than-@@
mother@@
msn.com/id/@@
muffins
murdered
nanobots
necess@@
neutr@@
nightlife
nutritional
obstruc@@
og
omic
omic@@
omit
onists
orable
orientated
orist
our-@@
owice
owl
p_@@
packaged
paralyzed
partment
peanut
peanuts
photovolta@@
pical
ping@@
piping
poin@@
porno@@
powerless
practitioners
premature
preserving
press/@@
priv@@
privacy/@@
proph@@
prosecu@@
provoking
psychiatrist
pushes
queuing
raccoon
rary
rebuilt
reck@@
recor@@
rehear@@
remar@@
resolving
revol@@
ribbon
robust
roman@@
rupted
rus
russi@@
s-to-@@
s.aspx
s_in_@@
safety@@
salads
sar
sato
sch
scholastic
scratching
secur@@
security@@
seismic
senile
shita
silicon
sited
skeptical
slapped
sleeper
smashed
smokes
snowball
sock
splash
spur
stadiums
stair
state-owned
sthetic
stiff@@
stin@@
stner
stoc@@
stown
strapped
stretches
strolled
subj@@
suburban
succeeds
sui@@
supreme
surfers
surpass
surviv@@
suspension
swans
tart
taxing
tear@@
tearing
tempar@@
thanking
thday
theast@@
thigh
thrillers
tions/@@
today@@
todays
tomor@@
true&@@
tumors
uh
uma@@
uneasiness
unes
upsetting
uty
vacancies
vap@@
vention
very_high_temperature@@
veter@@
vhtr.htm
vomiting
wait@@
washer
wasn
waterproof
weaken
week.com/@@
widow
wild@@
winding
windsurfing
winter@@
worker@@
yarn
yi@@
zuka
zz
---
00a
10000@@
100th
1400
19.@@
2C
50%
74@@
7days
ACTIVITIES
AEON
ANCE
AU
AU@@
Ask
Assem@@
Atlantic
Aunt
Awa@@
Away
BEL@@
BER@@
BRO@@
BT
Barrier
Bei@@
Bicycle
Billboard
Bloo@@
Bour@@
Bowl
Breakfast
Breast
Brief
CI@@
CLOTHES
Canberra
Casa
Cell@@
Changi
Chann@@
Cook
Cru@@
Cruise
DAYS
DIA
Defence
Det@@
Dragonball
Drink
Drug
Ds
ENT@@
EVERYTHING
Eclipse
Eco@@
Ekiden
Ele@@
Environ@@
Era
Ergonomics
Exams
FE@@
Fern@@
Fifth
Fighting
Fred
Galaxy
Gintama
Granny
Grea@@
HD@@
Hachi@@
Hospit@@
Hybrid
IME
IMES
IY@@
Independence
Initi@@
Interview
Investment
Jackie
Jam@@
Janeiro
Journey
Katsu@@
Kichi@@
Km
LOOK@@
LOT
Lank@@
Laputa
Leader
Lear@@
Linda
Longer
Losing
MU@@
Magaz@@
Mig@@
Miller
Muse
Naples
Nico@@
Nicolas
Nike
O'@@
Opport@@
PK
Pach@@
Patient
Perry
Phuket
Pope
Positive
Predi@@
Premier
Presently
Prev@@
READ
Race
Rakuten
Related
Rou@@
Ryo@@
SHE
SUR@@
Saki
Sco@@
Secre@@
Shen@@
Slow
Soo@@
Superman
Susta@@
TOE@@
TOIEC
TOLD
Takeshi
Tang
Teddy
Tempura
Tetsuya
Thr@@
Track
Trek
Umeboshi
VE@@
Victorian
Vit@@
WAT@@
WENT
WR
Walk@@
Warm
Warsaw
Wel@@
Wer@@
Wherever
Won
Woo
YAM@@
YOGA
Yog@@
Yuri
Zushi
acne
addicts
additionally
addy
adhesive
admiring
ador
afford@@
aggression
agon
alcoholi@@
analyses
ancest@@
ancho@@
ancing
andong
anna
anno@@
anser
anted
api@@
apologies
appar@@
ashes
aspire
attempting
ballpoint
bene@@
bered
bile
botanical
boxed
boxer
bro
bukuro
bullshit
buns
bustle
cables
cardio@@
cas
cast@@
catastrophes
catcher
cements
cheer@@
chord
coastal
cohes@@
colony
commited
complim@@
condu@@
conductors
consistency
corrective
corri@@
courteous
courtesy
cracks
cred@@
crises
criticisms
curved
cycli@@
dem
devotion
diameter
diar@@
dily
dingly
dinners
directing
discos
ditch
div@@
doggy
drow@@
dupli@@
dynam@@
ealing
eber
edit@@
eeded
eeds
eenth
ek@@
ekwondo
ementioned
endi@@
entertainers
eo
eradicate
escalating
essor
evacu@@
evo@@
evolving
excellence
excites
expiration
fatigued
feder@@
feld
fined
fireplace
flags
flakes
fliers
flown
fluffy
foam
forgiveness
freetime
funnier
gangster
gastro@@
gau@@
genetic@@
gents
genuinely
gia
gn
gourmet
handball
harmon@@
haz@@
herb
hoop
hopping
hostess
i.@@
icky
ideals
illum@@
illustrator
ilty
implement@@
impul@@
inari
incoming
infamous
inflexible
inha@@
initiate
innumerable
insights
intensely
intern@@
intrigued
itory
ity/@@
jit@@
jong
kil@@
kim
lazier
lef@@
lei@@
leness
linear
loaf
locally
maintains
manuals
marri@@
mars
massages
matical
mc@@
melancholic
member@@
midday
migrants
millennium
minist@@
mistakenly
mitigate
mommy
mooncake
more@@
moth
nativ@@
nori
northeastern
noses
nutrients
obligatory
offense
onomi
oops
ophthal@@
optim@@
organizers
ouses
oval
overloaded
panties
parame@@
payday
peration
periodi@@
philosophical
phon@@
polis
ponds
poon
portra@@
pounding
presenter
pression
proceeded
processor
profes@@
project@@
publications
pumpkins
puppies
purify
radar
reat
rebates
recla@@
reconstruct
regre@@
repeats
reprocess
resch@@
resta@@
revival
revived
rip
rivals
roomate
sail@@
sanc@@
savage
scre@@
security-@@
segregation
sermon
sewage
sik
slap
smil@@
sou
specify
spectacle
squeezed
squirrels
stack
stee@@
stickers
stirred
stoma@@
storms
strains
strang@@
stricter
struction
subordinate
sufferers
supervise
supposedly
swap
tangled
teasing
telescope
thetic
tho
thrill
thriving
tles
tr
trails
translater
transplant
travellers
troops
tuning
ument
unichi
unimaginable
unknowingly
unsolved
unveiled
urgency
urora
usability
utilizes
uto
vements
videophone
viron@@
visuals
vowels
wellbeing
wester@@
wetland
wns
woo
worsened
wounded
wrec@@
wrong@@
y-
yday
yearn
zawa
zodiac
//www.nature.com/scitable/topicpage/@@
06@@
10&@@
11am
2000yen
200909@@
2040
303
3A
73@@
8:00
990
@@@
ABE
ALTH@@
AUS
AYA
Abbey
Advances
Adventures
Airlines
Amazingly
Anki
Arno@@
Arrang@@
Ayumi
BB
BL
Battle
Beef
Born
CC@@
CHO@@
Canton
Carolina
Casino
Celeb@@
Choi
Chuck
Cloud
Coca
Colorado
Colosseum
Communications
Crazy
Crime
Croatia
DER@@
DIFFERENT
Dam@@
Day@@
Deb@@
Diseases
Dok@@
Dum@@
EE
Effects
El
Englishman
Enough
Ep
Erika
Failure
Flat@@
GEPT
GI
GS@@
Germans
Gol@@
Gorba@@
Gordon
Guid@@
Hans
Harbour
Haruhi
Herald
Hop
Hot@@
House@@
IENCE
INA
Indu@@
Inf@@
Intermediate
JA@@
Jacobs
Jacques
Jersey
Juno
KA@@
KY
Kazuo
Kle@@
Kotatsu
LOW@@
Laden
Lei@@
Lionel
Lions
MAC
MOM@@
MOS
Mand@@
Marshall
Match
Mill@@
Minko
Mongo@@
Mou@@
Mumbai
Nad@@
Nancy
Nep@@
Noda
Nor
Ny@@
Oku@@
Oly@@
Order
Ot@@
PING
PROGR@@
Pap@@
Parent
Philip
Phillies
Pho
Player
Plz
Poly@@
Portable
Prac@@
Rarejob
Represent@@
Robots
SAID
SAKE
SK@@
STARBUCKS
STO@@
Sab@@
Sant@@
Scre@@
Seems
Send
Septem@@
Shan
Shimizu
TC
TEL@@
THINGS
TIC@@
Takuya
Thunder
Tough
Ts
Upper
VI@@
Va@@
Vampire
Vatican
Venus
Visitors
WITH@@
WORK
Wake
Warri@@
Wireless
Wuhan
YUI
Yasu@@
Yong
abdomen
access@@
ado
advant@@
adviced
advisable
afflicted
agre@@
algebra
amoun@@
announcing
antibiotics
antiques
area@@
asa@@
assessed
astro@@
astron@@
atim@@
attor@@
aus
avoid@@
awaken
baker
barbar@@
bata
bedding
biometri@@
bot@@
buddhist
calamity
cash@@
cea@@
chapters
china@@
chun
civi@@
civic
civilized
cleans
clutch
comforting
commemor@@
commission
committees
compartment
compassion
condemned
cong@@
consider@@
consonants
contempla@@
continents
creatively
delivers
deserted
desper@@
diag@@
dictations
diplomacy
dipped
discovers
discre@@
dissolution
disturbs
divine
doom
dormitories
downpour
drained
dream@@
drum@@
dusty
eagle
eer
elective
eliminates
enduring
eradi@@
essive
eth
exaggerate
excitedly
exec@@
exhibits
explicit
fail@@
familar
fiancee
flir@@
formulas
freaked
gamers
geothermal
glanced
globalized
graffiti
grandparent
groun@@
guardian
guinea
hah
hamsters
hana
hari
huahua
huang
hungover
hydraulic
icient
idal
identities
idi@@
idu
impacted
indones@@
infancy
inland
inqu@@
insec@@
instant@@
instill
interf@@
inthe
intment
invites
involun@@
iphone4
isolate
izo
jellyfish
jounal
juices
kes@@
kins
koala
labeled
learn@@
leys
liam@@
lice
licking
ligament
liness
lised
lli@@
losers
lov@@
mada
marrying
meaning@@
merchants
mering
microsc@@
mike
mixer
mn
moni@@
mono
motherland
motivations
msn@@
mus
neck@@
neighborhoods
neys
occa@@
occup@@
occupies
ologist
omedical
operative
ophili@@
opport@@
orate
oration
ornaments
orth@@
oun
outw@@
ows
papa
parenting
parrot
participates
pas
pasted
paw
pearls
pension@@
persevere
peso
ph
physicist
picious
picturesque
pirated
poop
portuguese
practic@@
prayers
pren@@
prepaid
princi@@
promotional
pronoun
prou@@
psi@@
psy
ration@@
reborn
recognizes
recruited
refining
regulatory
relevance
relieves
rememb@@
remembers
repetition
republic
rever@@
rival@@
ross
rotate
rou
rubbed
sab@@
salesclerk
salt@@
sap@@
sarca@@
scrip@@
sealed
selfishness
serials
shimasu
shipment
shone
shoots
shouts
shuffle
shutter
sightedness
slammed
sled
snap@@
sofas
sponsored
sponsors
spring@@
sse
ssin
steop@@
stitute
stories/@@
streaming
strips
sual
subsidizing
substanti@@
successes
succum@@
sucked
sunflower
supercritical-@@
surname
surrounds
swallowed
symbolize
sz
tabID
technics
tem
tempting
terr@@
thanksgiving
thesia
thicker
tine
tiz@@
tonnes
toppings
toughest
traps
trophy
tsun@@
twee@@
tweeting
ua
undergraduates
unforeseen
unkind
unouchi
upro@@
ussed
usuall
vations
veness
vertical
verting
vibrations
virgin
vocab
wable
wagon
waitting
wara
wasteful
weakest
weather@@
webworks/cppr/y2001/pres/@@
weigh@@
wher@@
which@@
whir@@
wholes@@
wilderness
wish@@
withdrawal
wounds
youself
és
.This
210
5am
70s
89@@
AE
ALA
ALLY
ANY@@
ATION@@
Alchemist
Angelina
Archit@@
Austen
Austra@@
Auth@@
Avi@@
Aya
BAN@@
BER
BLE@@
BT@@
Beaujolais
Blan@@
Boring
Bought
Bread
Brooklyn
Bulgarian
CAL@@
CRE@@
Camer@@
Chairman
Choosing
Chou
Chri@@
Chur@@
Coldplay
Coll@@
Comp@@
Comparison
Concept
Cour@@
DAN@@
DEN
DISAPPOIN@@
DS@@
DSLR
Dean
Debate
Discuss
ELS
EMENT
END@@
EO
Easy
Embassy
Eni@@
Expensive
FI@@
FOOD
Fal@@
Federation
Fried@@
Frist
GIN@@
GOT
GUNDAM
Georgia
Godiva
Greeting
Gui@@
HOUSE
Hak@@
Hayabusa
Heathrow
Hid@@
Hugh
Hunger
Hus@@
ICA
ILE
Immigration
Intel
Invest@@
Investing
Ito
JOB
Jeff
Jews
Jim@@
Jimmy
Jing
Judas
KEE@@
Kaiten
Karuizawa
LOW
Law@@
Lecture
Lima
Lip@@
Lit@@
Louise
Mankind
Masayoshi
Met
Mitsu@@
Mix
NEED
NTUC
Nas@@
Nenga@@
Nine
Ohh
Oni
Operating
PAN@@
PLAY@@
Pass
Penny
Players
Podcasts
Pref@@
Prices
Products
Pronunciation
Puerto
Pyra@@
Relatives
Rin
Rock@@
Roll
Round
SF@@
SHI@@
SIM
SKY
SON
Sat
Scar@@
Schedule
Schu@@
Shiba
Sli@@
THEN
TOP
Thir@@
Thousands
Transfer
Tsutaya
UNESCO
USE
USH@@
Us
Used
Users
Victor
Vir@@
Vs
WARD
Whistler
Whole
Wonderful
XO
XT
YO
YOU@@
Yakushima
Yea
Yi@@
Yok@@
Zhao
adul@@
agony
ali
alle@@
alo
alt
ambitions
ame@@
analyst
anemia
appren@@
atte
batter@@
bent@@
biotechnology
blaming
blankets
blur@@
blurred
boarder
builder
buzz
cade
campa@@
capita
ceful
cerebral
cers
charger
choco
chro@@
civilizations
cle
cm@@
col
comers
commanded
commencement
commitments
commo@@
competency
complet@@
composite
const@@
conveniences
cop
cot@@
craw@@
credibility
curfew
curves
dan
deem
dependable
destruc@@
detour
dictator
disadvantaged
discourages
discriminatory
dishonest
disposable
disrupt
dissolved
distor@@
distressed
doctor@@
doubles
drown
earphone
easy@@
editors
elastic
elephants
ellers
embarrassment
eme@@
emi
emoticons
endanger
endix
enlar@@
eral
esium
eter
eter@@
ettes
ev
examin@@
examinee
facilitates
fascinate
favored
filtra@@
firefly
flatmate
footprint
furnished
fussy
garden@@
gative
geometry
gigs
gio
gloo@@
graded
grasped
gravel
grin
gro
guidebook
guideline
hairy
haste
hic@@
hind@@
hometowns
humming
hypertension
ident
imaginations
imminent
inations
indecent
indica@@
infin@@
inflic@@
injustice
instruct
intel@@
intellec@@
inva@@
investig@@
irrational
jew@@
joins
joked
joun@@
jour@@
jyo
kettle
kies
kikomori
kk
lable
latory
legitimate
liable
librarian
lightweight
liner
look@@
luck@@
maga@@
manifest
manipulate
manned
medalist
mented
mination
minerals
mirrors
mism
multinational
mummy
mustard
nanny
negligible
ninja
num
numbered
obu
okers
ologists
ometer
organiser
ork
orphan
overwhel@@
oz@@
pang
parody
parting
pater@@
pean
pepole
persistence
persuasive
phases
phy
phy@@
pizz@@
pol@@
politically
porter
potent
pou@@
practicable
premier
prescri@@
presently
primitive
profess@@
programmed
pura
railways
ream
rectangle
regained
rheuma@@
rist
ropes
runway
sailor
sant
sb
sche
scone
scu@@
seawater
sec
semesters
setback
shii
shiro
shite
signboard
sip
sitcoms
skelet@@
slu@@
song@@
soundly
spend@@
splitting
stereo
stre@@
subsidised
sufficiency
suscep@@
swift
swimsuit
synthesis
teased
tending
tentative
tex
thm
thumbs
tments
tortured
tranquil
transcri@@
transcribe
trim
tters
ttery
tyre
udge
unborn
unhappiness
untou@@
upsets
urt
ushes
ushing
ushu
vaccinated
venti@@
waffle
wallets
wari
weighs
wheelchair@@
wiki
wording
wra@@
wrink@@
yin
zan
zoom
....@@
.ht@@
//www.singstat.gov.sg/@@
//www.the@@
20.@@
2018
50m
603@@
730
950
:15
AK
AMI
Abra@@
Afri@@
Ai
Alb@@
Alright
Anderson
Angela
Ani@@
Anniversary
Asa@@
Associate
Aud@@
Austin
BODY
Bes@@
Bio
Cast@@
Chat
Chen@@
Chihiro
Chosun
Chr@@
Close
Comb@@
Complex
Cons
Corn@@
Cre@@
DER
Damon
Davi@@
De
Desig@@
Dong@@
Drawing
Drop
Dumbledore
EAR@@
EB@@
ECT
ERA
Emer@@
Eminem
Enjoying
Enri@@
Est@@
Eu@@
Eura@@
Evans
Eyes
FAM@@
FUN@@
Facility
Fig@@
Flight
Foo
Forever
Friendly
Furisode
GS
Gala
Gran
Grandfather
Gw@@
Hai@@
Hanasaku
Hand
Helsinki
Hur@@
IDs
ILY
INTERES@@
Imag@@
Image
Improvement
Iroha
Ivy
Jonas
Joshua
Journa@@
KOTATSU
Kai
Kamen
Kansas
Katy
Kenji
Kinect
Kinkaku
Kinkakuji
Ko
Kus@@
LUN@@
Latvia
LoA
Louvre
Luck
MAY
MMA
MOE
MW@@
Marcus
Materi@@
Matsuyama
Milano
Mmm
Monitor
Mraz
Mura@@
NBC
NC
NIGHT
NU
Nako
Nobunaga
Oma@@
Open@@
Opti@@
Osamu
Oz
PH@@
Palestine
Paradise
Paula
Peak
Pepper
Pepsi
Plese
Polic@@
Portman
Prison@@
Profes@@
Proper@@
Purpose
Qing@@
RC
RIM
Report@@
Rider
Robinson
Ronaldo
SLEE@@
SPECI@@
SUB@@
Sato
Sche@@
Sek@@
Seth
Shabu
Shinsaibashi
Shon@@
Shor@@
Simpson
Sirs
Sofia
Stor@@
Suppl@@
Syl@@
TAN@@
TRON
TVXQ
Taxi
Technically
Tha
Tiffany
Transformer
Tuesdays
Turn
Update
Usual
Vie@@
Vision
Visit
Weaver
Wed
Wells
Wit@@
XY
Zea@@
Zhen
abbreviated
accessing
achieves
acious
addic@@
alerted
aments
amp
ancement
ancements
anges
apers
apped
applauded
appreciating
arren
assault
ated@@
attaching
bak@@
baldness
bankruptcy
behaves
beige
berculosis
billi@@
bioethic@@
blended
blender
blessings
blood@@
bombing
brilliantly
browsers
bulary
butI
cactus
cathe@@
cci
cence
cgi@@
charcoal
chec@@
checkout
chicks
cio
citizenship
cium
clusion
coasters
coher@@
colli@@
commercialized
compares
compliments
compromises
conqu@@
continental
converter
conveys
cook@@
cooperating
corn@@
cpf@@
culus
cutt@@
dams
daw@@
dealers
death@@
deserts
dinosaur
discouraging
dispat@@
displa@@
disti@@
ditional
dod@@
dragons
drainage
drifting
dripping
dryers
eage
ego@@
eil
elf
eligibility
eman@@
embarrased
ementation
emplo@@
encompas@@
enlarge
enligh@@
entin
enzy@@
eruption
este
expectancies
exploding
eyela@@
fall@@
features/@@
fetched
fiel@@
filthy
fingerprints
flush
fom@@
forgiven
foundations
frac@@
freed
frown
frustrations
gazing
gim@@
grabbing
graphical
greenery
gru@@
guru
gus
hangs
hashi
haul
heals
hedge@@
helpers
hes@@
hierarchy
hit@@
hl@@
hoku
honey@@
hospitable
iBT
idiots
ience
iknow
illogical
imitation
immuni@@
inable
incompetent
indicating
ine/@@
ingh@@
insensitive
insufficiency
intact
intangible
intentional
internation@@
iodine
iors
itake
jar@@
jis
kimasu
kind@@
knob
lb
lessness
licitly
locking
maids
maneu@@
manif@@
manly
marble
mashed
mathema@@
mechani@@
memorise
mills
miracles
mis
mischief
mission@@
moi@@
mology
moody
motors
mounted
mous@@
murder@@
myth@@
ninet@@
nity
noisi@@
nouri@@
oasis
obst@@
occurr@@
olympics
only@@
onward
onym
oom
oto
outpatient
paella
palms
paramount
patrol
philosop@@
plains
platforms
pock@@
portability
portal@@
positioning
preceding
privately
proceeding
procrastin@@
prom@@
pronou@@
proper@@
propor@@
protocol
quarrels
ques@@
quil@@
reacting
rearing
recommen@@
recy@@
refl@@
rel
remedi@@
rene@@
reputable
rescent
rescu@@
revolutions
revolving
rib
rightly
rika
rucksack
sacrificing
sals
savvy
schedu@@
scoring
sculp@@
semifinal
shaw
shira
shopaholic
shun
signifies
sim
sitter
siveness
skated
smash
snowflakes
softer
sorrows
spared
specializing
spelled
spotlight
sprayed
sprinkled
starved
stationery
stling
stocked
stribu@@
strip
subtitled
suma
summarized
sunk
supervised
swords
syntax
takers
tarily
tasking
theatrical
thqua@@
threa@@
thy@@
tia
ticing
token
toler@@
town@@
toxic@@
transactions
tron
tu
type@@
unattractive
unified
unwritten
uta@@
utter
vastly
vhtr@@
vol
voters
warms
wast@@
wata@@
waterfalls
weaponry
wept
wheel@@
where@@
whistle
widening
witches
witnesses
worl@@
wu@@
ww@@
yaku
yards
yashi
zza
05@@
108
2400
2PM
2th
3DS
5000@@
60s
90s
Achi@@
Advertising
Alpha
Apartment
Arashi
Arc
Artificial
Astron@@
Athens
Athough
Atsu@@
Ax@@
BOR@@
Bach
Becoming
Behind
Bhutanese
Biotechnology
Bir@@
Bleach
Bol@@
Bran@@
Broad@@
Bull@@
CC
CLO@@
COL@@
CROSS
Came
Catcher
Chamber
Champions
Chanel
Changes
Chatting
Christi@@
Coco
Coinc@@
Comedy
Comm@@
Compul@@
Connec@@
County
Cr@@
Customers
Cuz
Describe
Desert
Dion
Dirty
Disa@@
Disney@@
Doll
Douglass
ENJO@@
ETC
Elliot
Emo@@
Emp@@
Evi@@
Fan
Fighter
Forth
Fred@@
Fruits
Gaz@@
Grandparents
GuangZhou
HEROES
Hachi
Hero
Hindi
Hiratsuka
IKO
IR
Impossible
Inte@@
Jack@@
Jake
Jiang@@
Jolie
Jum@@
KY@@
Kazu
Kazu@@
Keelung
Kenya
Ker@@
Khan
Koizumi
Lau@@
Leaving
Lower
Lucia
Luther
Mcdonalds
Minnesota
Mona
MySpace
NB
Nano@@
Navy
Nicole
Nurse
OFF
Ohio
Oka@@
Omotesando
PHD
PHP
PLE
PS2
Pet
Pica@@
Practical
Promotion
Qs
Raising
Ran@@
Respon@@
Rest
Returning
Road@@
Rubik
SING@@
SL
STEP
Sac@@
Sailor
Sakura@@
Sentosa
Shock
Showa
Sigh
Similar
Singer
Sit@@
Spani@@
Starcraft
Stru@@
Stuart
Suff@@
TAI@@
THANK
TIT@@
TOFEL
TP
TRI@@
Telephone
There@@
Totally
Truly
UNE
USED
Vanessa
Vehic@@
Volunteer
Wal
Wan@@
Wei@@
YAK@@
Yoko
Yumi
aby@@
accomo@@
accumulating
admirable
ambassador
ambience
amus@@
anai
anima@@
ante
apparel
arities
aron
atheist
atively
atmo@@
audiobook
bab
bacteri@@
bage
baht
behavioral
benches
bilingu@@
bind
blish
blisters
bre
brew
brisk
broom
burn@@
calculating
cargo
carving
chai
chak@@
cheesecake
ci
clone
collects
collided
colon
coloring
comforts
compatibility
compel
compensated
complementary
config@@
consolation
constellation
conversing
corpse
correlation
cott
crickets
crip@@
crossroads
cture
culturally
customized
cynical
decom@@
degraded
depar@@
desi@@
dful
diat@@
dient
discard
disconnected
distractions
doze
dresser
dson
dul@@
dummy
dw@@
ellow@@
embraced
enchan@@
enga
entia
erce
esa
estone
ethanol
etti
everthing
expor@@
extrac@@
faction
faith@@
firecrackers
fishermen
fleeting
forgi@@
freestyle
freshness
funk
fus@@
gargle
geological
gly
gothic
greens
gums
heritages
heros
highland
honour
hormones
hotspring
htt@@
hurrying
hypothetical
idents
idiomatic
idou
ilan
ilers
immigrate
inclination
incomprehensible
indisp@@
industrialized
inja
inquire
inspector
install@@
insult
intri@@
introductory
isan
itsu
iya
jar
jasmine
jerk
jewel
judgments
kaze
kick@@
kicks
kiki
knot
lder
lending
loan@@
lth
magne@@
mainten@@
mantis
memor@@
merchan@@
mermaids
mina
mits
modeled
moped
multilingual
multip@@
musli@@
mutually
narrow@@
nature@@
naver
nett
nies
nific@@
nightclubs
numerical
obo
oden
offic@@
ogly@@
ogue
ointment
ooo
oria
orig@@
orphans
orry
outsider
overs@@
owski
oxy@@
paras@@
passionately
peeled
pened
persimmon
persimmons
pesticides
phil@@
pigeon
pleasurable
plugged
pneumonia
ponder
portrayed
posit@@
postal
pressive
proceeds
profiles
propo@@
puff
purcha@@
quad@@
rainbows
ral@@
ranged
realizes
regrettably
reluc@@
renewa@@
reposit@@
resisti@@
respec@@
restrain
restricting
retreat
riddles
rot
sandy
sardines
saute
sax
schoolwork
scolding
screw
shined
sider
siren
small@@
smorgasbord
sneak
sober
socc@@
someones
sorrowful
sors
sow
span@@
stache
steals
steer
stering
stimulation
sto
straightforward
strust
sublime
succeeding
success@@
sug@@
sunbathing
surr@@
sya
symbolizes
symposium
synthetic
teachings
teness
tent@@
tequila
teria
thickness
threshold
throne
thwest
tint
tise
tner
tonic
torii
toshi@@
toss
tribes
tribu@@
trusting
tummy
tural
turers
turkish
ub@@
uel
ump@@
unately
unchanged
uncontrollable
univers@@
unwind
upbringing
uz@@
variables
veling
vide@@
vigor
violating
vomit
wal
warns
whatsoever
wolves
yahoo@@
yal
yaw@@
zuoka
zzi
.co@@
//mycpf.cpf.gov.sg/@@
//www.channelnewsasia.com/@@
//www.cogeneration.net/@@
01@@
100yen
140@@
20km
40000
ALT
AMER@@
ARASHI
ASK
ATSU
Aber@@
Acting
Adelaide
Alone
Angkor
Angry
Animals
Apollo
Asking
Aus@@
BLO@@
BOY
Backstreet
Becker
Bed
Bolivia
Bottom
Bring
Bronte
Buff@@
CAE
CR
Cardiff
Cham@@
Characters
Charo
Chu
Chuo
Chuseok
Cloudy
Composition
Consi@@
Customs
DELL
Daegu
Deutsch
Douglas
Driver
Duck
Duke
Dur@@
Ebisu
Ehime
Electrical
Error
Falling
Fan@@
Fatty
Fea@@
Fed@@
Ferris
Fifty
Follow
Found
Futon
GAN@@
GG@@
GRE@@
GaGa
Gang@@
Gardens
Gerald
Glen@@
Gmail
Got@@
HAR@@
Hands
Hanks
Hay
Higa@@
Hiro
Hold
INGS
IZ@@
Ishig@@
Iwas
Jam
Jong
KAM@@
KK@@
KNO@@
KTV
Kang@@
Kingdoms
Kum@@
Lac@@
Laptop
Laur@@
Leaves
Light@@
Linguistics
Lithu@@
Luna
Lviv
MET@@
MH@@
Maki
Maltese
Mama
Margar@@
Metal@@
Michelangelo
Mick@@
Miy@@
Munich
Ningbo
Od@@
Ohanami
Olga
Oy@@
PART
PLE@@
PP
PTA
Pachinko
Persian
Picasso
Pictures
Ping
Plainsville
Poe@@
Port
Prada
Pressure
Prius
Psychologists
Pul@@
RC@@
Radio@@
Radioactive
Rat@@
Ready
Refer@@
Reser@@
Ricky
Rodri@@
Romanian
Ron
Ronald
Russell
Rye
SAKURA
SAP
SDF
SEA
SER@@
SL@@
SMAP
Sasha
Share
Sin
Size
Sochi
Speech@@
Spiderman
Spring@@
Stea@@
Streng@@
Stro@@
Structure
Su
TON@@
Tatami
Tele@@
Ti
Tomo@@
Tsuyoshi
Tum@@
Twi@@
U.@@
U2
USHI
USTRE@@
Unbelievable
Us@@
Van@@
Vegetable
WO@@
WON@@
WRs
Washing
Wat
Workplace
XYZ
Xbox360
Xia@@
Yamashita
Yamato
Yay
Yoon
ZO@@
Zer@@
Zuckerberg
_Reactor.htm
accomplishing
activated
akin
alphabe@@
amel
amend@@
anes
announces
arisen
arithmetic
aromatic
asap
assassin@@
autism
awi
bbed
betra@@
biochemistry
bipolar
birthplace
bition
blueprint
boils
boosts
budd@@
bullets
buzz@@
cades
carnival
ceased
cereb@@
certified
charisma
charitable
cheeky
chie
cine@@
classification
coast@@
combines
commemorate
communist
concise
condem@@
cone
conscientious
contagious
contestants
continuity
conven@@
correctors
cospla@@
cowboy
creep
croquette
culprit
daiji
dden
deceive
decor
dedness
dela@@
delicacies
demon
depic@@
descendant
despise
devastation
dialo@@
differenti@@
dimen@@
diminished
discrep@@
disobe@@
disrupted
distingu@@
divisions
doomed
dragon@@
drama@@
drawers
dumbbells
duo
ectives
edes
editions
elas@@
elli@@
emerald
enas
endo@@
energi@@
eno
enrolling
enture
erotic
essly
estation
extends
extracurricular
eyeglasses
factants
fascination
fest
figh@@
fishy
floated
flutter
foxes
friger@@
fringe
fty
gangs
geni@@
ghan
[...]
